{
  "version": "1.0",
  "truncation": null,
  "padding": null,
  "added_tokens": [
    {
      "id": 0,
      "content": "<|pad|>",
      "single_word": false,
      "lstrip": false,
      "rstrip": false,
      "normalized": false,
      "special": true
    },
    {
      "id": 1,
      "content": "<|endoftext|>",
      "single_word": false,
      "lstrip": false,
      "rstrip": false,
      "normalized": false,
      "special": true
    },
    {
      "id": 2,
      "content": "<|startoftext|>",
      "single_word": false,
      "lstrip": false,
      "rstrip": false,
      "normalized": false,
      "special": true
    },
    {
      "id": 3,
      "content": "<|echo|>",
      "single_word": false,
      "lstrip": false,
      "rstrip": false,
      "normalized": false,
      "special": true
    },
    {
      "id": 4,
      "content": "<|deep_tree|>",
      "single_word": false,
      "lstrip": false,
      "rstrip": false,
      "normalized": false,
      "special": true
    },
    {
      "id": 5,
      "content": "<|reservoir|>",
      "single_word": false,
      "lstrip": false,
      "rstrip": false,
      "normalized": false,
      "special": true
    },
    {
      "id": 6,
      "content": "<|membrane|>",
      "single_word": false,
      "lstrip": false,
      "rstrip": false,
      "normalized": false,
      "special": true
    },
    {
      "id": 7,
      "content": "<|hypergraph|>",
      "single_word": false,
      "lstrip": false,
      "rstrip": false,
      "normalized": false,
      "special": true
    },
    {
      "id": 8,
      "content": "<|atomspace|>",
      "single_word": false,
      "lstrip": false,
      "rstrip": false,
      "normalized": false,
      "special": true
    },
    {
      "id": 9,
      "content": "<|agent|>",
      "single_word": false,
      "lstrip": false,
      "rstrip": false,
      "normalized": false,
      "special": true
    },
    {
      "id": 10,
      "content": "<|arena|>",
      "single_word": false,
      "lstrip": false,
      "rstrip": false,
      "normalized": false,
      "special": true
    },
    {
      "id": 11,
      "content": "<|relation|>",
      "single_word": false,
      "lstrip": false,
      "rstrip": false,
      "normalized": false,
      "special": true
    },
    {
      "id": 12,
      "content": "<|introspect|>",
      "single_word": false,
      "lstrip": false,
      "rstrip": false,
      "normalized": false,
      "special": true
    },
    {
      "id": 13,
      "content": "<|perceive|>",
      "single_word": false,
      "lstrip": false,
      "rstrip": false,
      "normalized": false,
      "special": true
    },
    {
      "id": 14,
      "content": "<|act|>",
      "single_word": false,
      "lstrip": false,
      "rstrip": false,
      "normalized": false,
      "special": true
    },
    {
      "id": 15,
      "content": "<|simulate|>",
      "single_word": false,
      "lstrip": false,
      "rstrip": false,
      "normalized": false,
      "special": true
    },
    {
      "id": 16,
      "content": "<|echobeat_start|>",
      "single_word": false,
      "lstrip": false,
      "rstrip": false,
      "normalized": false,
      "special": true
    },
    {
      "id": 17,
      "content": "<|echobeat_end|>",
      "single_word": false,
      "lstrip": false,
      "rstrip": false,
      "normalized": false,
      "special": true
    },
    {
      "id": 18,
      "content": "<|step|>",
      "single_word": false,
      "lstrip": false,
      "rstrip": false,
      "normalized": false,
      "special": true
    },
    {
      "id": 19,
      "content": "<|persona|>",
      "single_word": false,
      "lstrip": false,
      "rstrip": false,
      "normalized": false,
      "special": true
    },
    {
      "id": 20,
      "content": "<|cognitive|>",
      "single_word": false,
      "lstrip": false,
      "rstrip": false,
      "normalized": false,
      "special": true
    },
    {
      "id": 21,
      "content": "<|adaptive|>",
      "single_word": false,
      "lstrip": false,
      "rstrip": false,
      "normalized": false,
      "special": true
    },
    {
      "id": 22,
      "content": "<|recursive|>",
      "single_word": false,
      "lstrip": false,
      "rstrip": false,
      "normalized": false,
      "special": true
    },
    {
      "id": 23,
      "content": "<|synergistic|>",
      "single_word": false,
      "lstrip": false,
      "rstrip": false,
      "normalized": false,
      "special": true
    },
    {
      "id": 24,
      "content": "<|holographic|>",
      "single_word": false,
      "lstrip": false,
      "rstrip": false,
      "normalized": false,
      "special": true
    },
    {
      "id": 25,
      "content": "<|feedback|>",
      "single_word": false,
      "lstrip": false,
      "rstrip": false,
      "normalized": false,
      "special": true
    },
    {
      "id": 26,
      "content": "<|feedforward|>",
      "single_word": false,
      "lstrip": false,
      "rstrip": false,
      "normalized": false,
      "special": true
    },
    {
      "id": 27,
      "content": "<|resonance|>",
      "single_word": false,
      "lstrip": false,
      "rstrip": false,
      "normalized": false,
      "special": true
    },
    {
      "id": 28,
      "content": "<|entelechy|>",
      "single_word": false,
      "lstrip": false,
      "rstrip": false,
      "normalized": false,
      "special": true
    },
    {
      "id": 29,
      "content": "<|user|>",
      "single_word": false,
      "lstrip": false,
      "rstrip": false,
      "normalized": false,
      "special": true
    },
    {
      "id": 30,
      "content": "<|echo_self|>",
      "single_word": false,
      "lstrip": false,
      "rstrip": false,
      "normalized": false,
      "special": true
    },
    {
      "id": 31,
      "content": "<|system|>",
      "single_word": false,
      "lstrip": false,
      "rstrip": false,
      "normalized": false,
      "special": true
    },
    {
      "id": 32,
      "content": "<|b9|>",
      "single_word": false,
      "lstrip": false,
      "rstrip": false,
      "normalized": false,
      "special": true
    },
    {
      "id": 33,
      "content": "<|p9|>",
      "single_word": false,
      "lstrip": false,
      "rstrip": false,
      "normalized": false,
      "special": true
    },
    {
      "id": 34,
      "content": "<|j9|>",
      "single_word": false,
      "lstrip": false,
      "rstrip": false,
      "normalized": false,
      "special": true
    }
  ],
  "normalizer": null,
  "pre_tokenizer": {
    "type": "Sequence",
    "pretokenizers": [
      {
        "type": "ByteLevel",
        "add_prefix_space": false,
        "trim_offsets": true,
        "use_regex": true
      }
    ]
  },
  "post_processor": {
    "type": "ByteLevel",
    "add_prefix_space": true,
    "trim_offsets": false,
    "use_regex": true
  },
  "decoder": {
    "type": "ByteLevel",
    "add_prefix_space": true,
    "trim_offsets": true,
    "use_regex": true
  },
  "model": {
    "type": "BPE",
    "dropout": null,
    "unk_token": "<|endoftext|>",
    "continuing_subword_prefix": null,
    "end_of_word_suffix": null,
    "fuse_unk": false,
    "byte_fallback": false,
    "ignore_merges": false,
    "vocab": {
      "<|pad|>": 0,
      "<|endoftext|>": 1,
      "<|startoftext|>": 2,
      "<|echo|>": 3,
      "<|deep_tree|>": 4,
      "<|reservoir|>": 5,
      "<|membrane|>": 6,
      "<|hypergraph|>": 7,
      "<|atomspace|>": 8,
      "<|agent|>": 9,
      "<|arena|>": 10,
      "<|relation|>": 11,
      "<|introspect|>": 12,
      "<|perceive|>": 13,
      "<|act|>": 14,
      "<|simulate|>": 15,
      "<|echobeat_start|>": 16,
      "<|echobeat_end|>": 17,
      "<|step|>": 18,
      "<|persona|>": 19,
      "<|cognitive|>": 20,
      "<|adaptive|>": 21,
      "<|recursive|>": 22,
      "<|synergistic|>": 23,
      "<|holographic|>": 24,
      "<|feedback|>": 25,
      "<|feedforward|>": 26,
      "<|resonance|>": 27,
      "<|entelechy|>": 28,
      "<|user|>": 29,
      "<|echo_self|>": 30,
      "<|system|>": 31,
      "<|b9|>": 32,
      "<|p9|>": 33,
      "<|j9|>": 34,
      "!": 35,
      "\"": 36,
      "#": 37,
      "$": 38,
      "%": 39,
      "&": 40,
      "'": 41,
      "(": 42,
      ")": 43,
      "*": 44,
      "+": 45,
      ",": 46,
      "-": 47,
      ".": 48,
      "/": 49,
      "0": 50,
      "1": 51,
      "2": 52,
      "3": 53,
      "4": 54,
      "5": 55,
      "6": 56,
      "7": 57,
      "8": 58,
      "9": 59,
      ":": 60,
      ";": 61,
      "<": 62,
      "=": 63,
      ">": 64,
      "?": 65,
      "@": 66,
      "A": 67,
      "B": 68,
      "C": 69,
      "D": 70,
      "E": 71,
      "F": 72,
      "G": 73,
      "H": 74,
      "I": 75,
      "J": 76,
      "K": 77,
      "L": 78,
      "M": 79,
      "N": 80,
      "O": 81,
      "P": 82,
      "Q": 83,
      "R": 84,
      "S": 85,
      "T": 86,
      "U": 87,
      "V": 88,
      "W": 89,
      "X": 90,
      "Y": 91,
      "Z": 92,
      "[": 93,
      "\\": 94,
      "]": 95,
      "^": 96,
      "_": 97,
      "`": 98,
      "a": 99,
      "b": 100,
      "c": 101,
      "d": 102,
      "e": 103,
      "f": 104,
      "g": 105,
      "h": 106,
      "i": 107,
      "j": 108,
      "k": 109,
      "l": 110,
      "m": 111,
      "n": 112,
      "o": 113,
      "p": 114,
      "q": 115,
      "r": 116,
      "s": 117,
      "t": 118,
      "u": 119,
      "v": 120,
      "w": 121,
      "x": 122,
      "y": 123,
      "z": 124,
      "{": 125,
      "|": 126,
      "}": 127,
      "~": 128,
      "¡": 129,
      "¢": 130,
      "£": 131,
      "¤": 132,
      "¥": 133,
      "¦": 134,
      "§": 135,
      "¨": 136,
      "©": 137,
      "ª": 138,
      "«": 139,
      "¬": 140,
      "®": 141,
      "¯": 142,
      "°": 143,
      "±": 144,
      "²": 145,
      "³": 146,
      "´": 147,
      "µ": 148,
      "¶": 149,
      "·": 150,
      "¸": 151,
      "¹": 152,
      "º": 153,
      "»": 154,
      "¼": 155,
      "½": 156,
      "¾": 157,
      "¿": 158,
      "À": 159,
      "Á": 160,
      "Â": 161,
      "Ã": 162,
      "Ä": 163,
      "Å": 164,
      "Æ": 165,
      "Ç": 166,
      "È": 167,
      "É": 168,
      "Ê": 169,
      "Ë": 170,
      "Ì": 171,
      "Í": 172,
      "Î": 173,
      "Ï": 174,
      "Ð": 175,
      "Ñ": 176,
      "Ò": 177,
      "Ó": 178,
      "Ô": 179,
      "Õ": 180,
      "Ö": 181,
      "×": 182,
      "Ø": 183,
      "Ù": 184,
      "Ú": 185,
      "Û": 186,
      "Ü": 187,
      "Ý": 188,
      "Þ": 189,
      "ß": 190,
      "à": 191,
      "á": 192,
      "â": 193,
      "ã": 194,
      "ä": 195,
      "å": 196,
      "æ": 197,
      "ç": 198,
      "è": 199,
      "é": 200,
      "ê": 201,
      "ë": 202,
      "ì": 203,
      "í": 204,
      "î": 205,
      "ï": 206,
      "ð": 207,
      "ñ": 208,
      "ò": 209,
      "ó": 210,
      "ô": 211,
      "õ": 212,
      "ö": 213,
      "÷": 214,
      "ø": 215,
      "ù": 216,
      "ú": 217,
      "û": 218,
      "ü": 219,
      "ý": 220,
      "þ": 221,
      "ÿ": 222,
      "Ā": 223,
      "ā": 224,
      "Ă": 225,
      "ă": 226,
      "Ą": 227,
      "ą": 228,
      "Ć": 229,
      "ć": 230,
      "Ĉ": 231,
      "ĉ": 232,
      "Ċ": 233,
      "ċ": 234,
      "Č": 235,
      "č": 236,
      "Ď": 237,
      "ď": 238,
      "Đ": 239,
      "đ": 240,
      "Ē": 241,
      "ē": 242,
      "Ĕ": 243,
      "ĕ": 244,
      "Ė": 245,
      "ė": 246,
      "Ę": 247,
      "ę": 248,
      "Ě": 249,
      "ě": 250,
      "Ĝ": 251,
      "ĝ": 252,
      "Ğ": 253,
      "ğ": 254,
      "Ġ": 255,
      "ġ": 256,
      "Ģ": 257,
      "ģ": 258,
      "Ĥ": 259,
      "ĥ": 260,
      "Ħ": 261,
      "ħ": 262,
      "Ĩ": 263,
      "ĩ": 264,
      "Ī": 265,
      "ī": 266,
      "Ĭ": 267,
      "ĭ": 268,
      "Į": 269,
      "į": 270,
      "İ": 271,
      "ı": 272,
      "Ĳ": 273,
      "ĳ": 274,
      "Ĵ": 275,
      "ĵ": 276,
      "Ķ": 277,
      "ķ": 278,
      "ĸ": 279,
      "Ĺ": 280,
      "ĺ": 281,
      "Ļ": 282,
      "ļ": 283,
      "Ľ": 284,
      "ľ": 285,
      "Ŀ": 286,
      "ŀ": 287,
      "Ł": 288,
      "ł": 289,
      "Ń": 290,
      "in": 291,
      "Ġt": 292,
      "Ġa": 293,
      "**": 294,
      "re": 295,
      "on": 296,
      "ĠĠ": 297,
      "he": 298,
      "at": 299,
      "er": 300,
      "or": 301,
      "en": 302,
      "es": 303,
      "Ġs": 304,
      "it": 305,
      "ing": 306,
      "Ġ**": 307,
      "Ġthe": 308,
      "al": 309,
      "Ġc": 310,
      "ion": 311,
      "nd": 312,
      "is": 313,
      "Ġin": 314,
      "Ġo": 315,
      "ct": 316,
      "Ġw": 317,
      "Ġf": 318,
      "le": 319,
      "an": 320,
      "Ġp": 321,
      "Ġand": 322,
      "ro": 323,
      "Ġm": 324,
      "ed": 325,
      "Ġre": 326,
      "ic": 327,
      "ar": 328,
      "st": 329,
      "Ġb": 330,
      "ent": 331,
      "Ġd": 332,
      "em": 333,
      "ch": 334,
      "Ġof": 335,
      "ou": 336,
      "Ġto": 337,
      "ce": 338,
      "Ġ-": 339,
      "ĠĠĠĠ": 340,
      "ve": 341,
      "ation": 342,
      "Ġe": 343,
      "##": 344,
      "ut": 345,
      "et": 346,
      "**:": 347,
      "om": 348,
      "--": 349,
      "ig": 350,
      "Ġth": 351,
      "Ġl": 352,
      "âĢ": 353,
      "ĠT": 354,
      "ra": 355,
      "Ġn": 356,
      "ĠE": 357,
      "ll": 358,
      "Ġint": 359,
      "se": 360,
      "im": 361,
      "ive": 362,
      "ow": 363,
      "ol": 364,
      "ĠA": 365,
      "Ġh": 366,
      "ly": 367,
      "čĊ": 368,
      "ith": 369,
      "Ġfor": 370,
      "ur": 371,
      "Ġst": 372,
      "Ġcon": 373,
      "Ġu": 374,
      "Ġwith": 375,
      "od": 376,
      "ure": 377,
      "cho": 378,
      "as": 379,
      "ir": 380,
      "id": 381,
      "ect": 382,
      "il": 383,
      "ot": 384,
      "ate": 385,
      "ity": 386,
      "am": 387,
      "Ġis": 388,
      "pt": 389,
      "Ġpro": 390,
      "og": 391,
      "Ġor": 392,
      "ĠI": 393,
      "Ġas": 394,
      "âĢĻ": 395,
      "ab": 396,
      "ĠS": 397,
      "ers": 398,
      "if": 399,
      "ess": 400,
      "Ġg": 401,
      "ec": 402,
      "ul": 403,
      "yst": 404,
      "Ġit": 405,
      "iz": 406,
      "ystem": 407,
      "Ġy": 408,
      "ĠC": 409,
      "Ġthat": 410,
      "ge": 411,
      "Ġ(": 412,
      "ru": 413,
      "ory": 414,
      "ri": 415,
      "Ġyou": 416,
      "el": 417,
      "ork": 418,
      "ep": 419,
      "ction": 420,
      "ay": 421,
      "ĠR": 422,
      "Ġen": 423,
      "Ġex": 424,
      "Ġres": 425,
      "Ġ\"": 426,
      "ĠEcho": 427,
      "ac": 428,
      "ies": 429,
      "ke": 430,
      "igh": 431,
      "nt": 432,
      "..": 433,
      "Ġon": 434,
      "erv": 435,
      "ĠD": 436,
      "ad": 437,
      "res": 438,
      "ĠThe": 439,
      "emory": 440,
      "Ġsystem": 441,
      "ver": 442,
      "ple": 443,
      "os": 444,
      "###": 445,
      "ment": 446,
      "Ġ\\": 447,
      "ist": 448,
      "ical": 449,
      "ĠP": 450,
      "ĠĠĠ": 451,
      "Ġan": 452,
      "pl": 453,
      "yn": 454,
      "ace": 455,
      "Ġcom": 456,
      "ĠM": 457,
      "qu": 458,
      "for": 459,
      "ĠL": 460,
      "---": 461,
      "ld": 462,
      "ain": 463,
      "ight": 464,
      "ap": 465,
      "ran": 466,
      "ter": 467,
      "**,": 468,
      "Ġbe": 469,
      "ence": 470,
      "work": 471,
      "ance": 472,
      "here": 473,
      "her": 474,
      "ĠĠĠĠĠĠĠĠ": 475,
      "ex": 476,
      "ations": 477,
      "per": 478,
      "Ġwh": 479,
      "ach": 480,
      "Ġcont": 481,
      "oir": 482,
      "ervoir": 483,
      "Ġinter": 484,
      "ruct": 485,
      "ynam": 486,
      "ial": 487,
      "oc": 488,
      "his": 489,
      "Ġwe": 490,
      "form": 491,
      "ĠB": 492,
      "Ġinto": 493,
      "red": 494,
      "âĢĶ": 495,
      "ates": 496,
      "iv": 497,
      "ĠF": 498,
      "um": 499,
      "put": 500,
      "ould": 501,
      "ack": 502,
      "ant": 503,
      "ike": 504,
      "Ġle": 505,
      "ag": 506,
      "Ġmemory": 507,
      "eed": 508,
      "Ġare": 509,
      "ust": 510,
      "Ġad": 511,
      "ructure": 512,
      "Ġv": 513,
      "and": 514,
      "ions": 515,
      "ign": 516,
      "act": 517,
      "Ġsp": 518,
      "apt": 519,
      "rom": 520,
      "Ġall": 521,
      "Ġcan": 522,
      "ens": 523,
      "un": 524,
      "ine": 525,
      "Ġrec": 526,
      "us": 527,
      "ext": 528,
      "SN": 529,
      "est": 530,
      "**.": 531,
      "ynamic": 532,
      "ha": 533,
      "eg": 534,
      "Ġmod": 535,
      "th": 536,
      "ore": 537,
      "ual": 538,
      "Ġthis": 539,
      "enc": 540,
      "cess": 541,
      "ating": 542,
      "Ġlike": 543,
      "ib": 544,
      "rans": 545,
      "Ġde": 546,
      "Ġev": 547,
      "op": 548,
      "rou": 549,
      "Ġal": 550,
      "Ġun": 551,
      "ĠU": 552,
      "por": 553,
      "Ġem": 554,
      "urs": 555,
      "Ġcre": 556,
      "ĠH": 557,
      "tern": 558,
      "able": 559,
      "Ġstructure": 560,
      "ere": 561,
      "ĠN": 562,
      "now": 563,
      "Ġwhere": 564,
      "ram": 565,
      "gh": 566,
      "etwork": 567,
      "ss": 568,
      "Ġch": 569,
      "end": 570,
      "Ġref": 571,
      "Ġnot": 572,
      "Ġar": 573,
      "ill": 574,
      "ĠThis": 575,
      "ĠO": 576,
      "out": 577,
      "led": 578,
      "rain": 579,
      "ĠW": 580,
      "ime": 581,
      "arn": 582,
      "ents": 583,
      "Ġme": 584,
      "ell": 585,
      "nect": 586,
      "Ġk": 587,
      "Ġfrom": 588,
      "ility": 589,
      "Ġac": 590,
      "Ġsu": 591,
      "Ġus": 592,
      "Ġse": 593,
      "Ġby": 594,
      "Ġbut": 595,
      "Ġsystems": 596,
      "ak": 597,
      "ile": 598,
      "``": 599,
      "Ġim": 600,
      "ous": 601,
      "ide": 602,
      "ject": 603,
      "Ġat": 604,
      "egr": 605,
      "----": 606,
      "ult": 607,
      "ding": 608,
      "pon": 609,
      "nit": 610,
      "ative": 611,
      "age": 612,
      "pace": 613,
      "art": 614,
      "ask": 615,
      "ĠESN": 616,
      "ata": 617,
      "Ġpat": 618,
      "Ġout": 619,
      "####": 620,
      "Ġlay": 621,
      "ĠĠĊ": 622,
      "Ġits": 623,
      "Ġco": 624,
      "Ġr": 625,
      "Ġdynamic": 626,
      "Ġrep": 627,
      "Ġreservoir": 628,
      "Ġknow": 629,
      "Ġeach": 630,
      "con": 631,
      "ew": 632,
      "Ġtrans": 633,
      "rol": 634,
      "ound": 635,
      "ization": 636,
      "ursive": 637,
      ").": 638,
      "ary": 639,
      "just": 640,
      "yp": 641,
      "ĠSt": 642,
      "Cog": 643,
      "vel": 644,
      "ph": 645,
      "Ġup": 646,
      "ctions": 647,
      "Ġmodel": 648,
      "back": 649,
      "The": 650,
      "we": 651,
      "Ġinst": 652,
      "low": 653,
      "ĠG": 654,
      "ific": 655,
      "Ġsc": 656,
      "\":": 657,
      "Ġprocess": 658,
      "Ġhow": 659,
      "pro": 660,
      "Ġcould": 661,
      "cl": 662,
      "rough": 663,
      "ures": 664,
      "ree": 665,
      "ard": 666,
      "arning": 667,
      "all": 668,
      "eedback": 669,
      "Ġadapt": 670,
      "rame": 671,
      "'s": 672,
      "lect": 673,
      "ts": 674,
      "anc": 675,
      "Ġab": 676,
      "ross": 677,
      "ip": 678,
      "ellig": 679,
      "ff": 680,
      "ledge": 681,
      "itect": 682,
      "chitect": 683,
      "ize": 684,
      "Ġsh": 685,
      "ural": 686,
      "ated": 687,
      "ognit": 688,
      "Ġtask": 689,
      "ĠIn": 690,
      "ional": 691,
      "rib": 692,
      "ode": 693,
      "ther": 694,
      "Ġwithin": 695,
      "eservoir": 696,
      "ramework": 697,
      "very": 698,
      "Ġpattern": 699,
      "Ġnetwork": 700,
      "Space": 701,
      "nder": 702,
      "Ġyour": 703,
      "Ġbet": 704,
      "ors": 705,
      "ener": 706,
      "ential": 707,
      "Ġreal": 708,
      "ef": 709,
      "uil": 710,
      "Ġ=": 711,
      "ĠCon": 712,
      "Ġcomple": 713,
      "ased": 714,
      "our": 715,
      "Ġthrough": 716,
      "sel": 717,
      "Ġdata": 718,
      "Ġbec": 719,
      "ĠIt": 720,
      "ire": 721,
      "hen": 722,
      "ges": 723,
      "Ġ1": 724,
      "Ġtheir": 725,
      "ized": 726,
      "Ġper": 727,
      "cept": 728,
      "tain": 729,
      "ĠAI": 730,
      "ribut": 731,
      "Ġallow": 732,
      "hy": 733,
      "Ġap": 734,
      "Ġarchitect": 735,
      "ĠInt": 736,
      "ms": 737,
      "Ġag": 738,
      "Ġintellig": 739,
      "ween": 740,
      "Ġframework": 741,
      "resent": 742,
      "lo": 743,
      "Ġevol": 744,
      "Ġwork": 745,
      "Ġecho": 746,
      "ract": 747,
      "Ġrel": 748,
      "Ġbetween": 749,
      "Ġknowledge": 750,
      "Ġrecursive": 751,
      "elf": 752,
      "ress": 753,
      "Ġtime": 754,
      "Ġact": 755,
      "Ġacross": 756,
      "Ġthese": 757,
      "raph": 758,
      "Ġintegr": 759,
      "Ġconnect": 760,
      "Ġdis": 761,
      "Ġhe": 762,
      "Ġtransform": 763,
      "Ġpl": 764,
      "mat": 765,
      "ability": 766,
      "Ġpatterns": 767,
      "old": 768,
      "lev": 769,
      "ose": 770,
      "ency": 771,
      "ind": 772,
      "ich": 773,
      "Ġunder": 774,
      "ci": 775,
      "ments": 776,
      "ise": 777,
      "hat": 778,
      "Ġcontext": 779,
      "Ġens": 780,
      "ving": 781,
      "Echo": 782,
      "Ġemb": 783,
      "olt": 784,
      "Ġlearning": 785,
      "als": 786,
      "Ġ\\(": 787,
      "ym": 788,
      "Ġexpl": 789,
      "Ġins": 790,
      "Ġgo": 791,
      "ecific": 792,
      "ically": 793,
      "LM": 794,
      "ink": 795,
      "fere": 796,
      "Ġcognit": 797,
      "eep": 798,
      "uring": 799,
      "self": 800,
      "ulti": 801,
      "Ġwill": 802,
      "Ġjust": 803,
      "Ġman": 804,
      "Ġalign": 805,
      "pen": 806,
      "ics": 807,
      "ights": 808,
      ".,": 809,
      "00": 810,
      "ves": 811,
      "Ġthey": 812,
      "Ġdes": 813,
      "This": 814,
      "yper": 815,
      "ĠĠĠĠĠ": 816,
      "fig": 817,
      "ĠUse": 818,
      "are": 819,
      "emb": 820,
      "Ġlo": 821,
      "ular": 822,
      "int": 823,
      "Ġsim": 824,
      "Ġreson": 825,
      "Ġcomplex": 826,
      "ness": 827,
      "ĠAt": 828,
      "Ġpers": 829,
      "ype": 830,
      "ast": 831,
      "nce": 832,
      "du": 833,
      "ĠEchoCog": 834,
      "Ġro": 835,
      "ities": 836,
      "ome": 837,
      "Ġintera": 838,
      "```": 839,
      "ĠEx": 840,
      "ave": 841,
      "Ġother": 842,
      "Ġthem": 843,
      "port": 844,
      "Ġgener": 845,
      "che": 846,
      "erg": 847,
      "Ġself": 848,
      "ational": 849,
      "Ġ\\)": 850,
      "Ġpr": 851,
      "ution": 852,
      "Ġfeedback": 853,
      "Ġpre": 854,
      "ible": 855,
      "Ġset": 856,
      "empor": 857,
      "ĠReservoir": 858,
      "Ġwould": 859,
      "ĠLLM": 860,
      "odes": 861,
      "row": 862,
      "Ġproject": 863,
      "âĢľ": 864,
      "âĢĿ": 865,
      "Ġupd": 866,
      "Ġneed": 867,
      "iron": 868,
      "puts": 869,
      "Ġtasks": 870,
      "()": 871,
      "ĠTree": 872,
      "Ġover": 873,
      "ement": 874,
      "emporal": 875,
      "ry": 876,
      "olog": 877,
      "Ġexper": 878,
      "Ġintelligence": 879,
      "In": 880,
      "viron": 881,
      "Ġdec": 882,
      "Ġdist": 883,
      "Ġ2": 884,
      "Ġind": 885,
      "stand": 886,
      "flow": 887,
      "Ġrepresent": 888,
      "Ġ|": 889,
      "ond": 890,
      "ĠMemory": 891,
      "hared": 892,
      "ĠâĢľ": 893,
      "ĠĠĠĠĠĠĠ": 894,
      "Ġfun": 895,
      "Ġmet": 896,
      "Ġnew": 897,
      "Ġwhat": 898,
      "ost": 899,
      "ord": 900,
      "--------": 901,
      "ake": 902,
      "ances": 903,
      "ron": 904,
      "text": 905,
      "ĠĠĠĠĠĠĠĠĠĠĠĠĠĠĠĠ": 906,
      "uman": 907,
      "face": 908,
      "Ġpar": 909,
      "Ġpart": 910,
      "ass": 911,
      "pect": 912,
      "ĠPro": 913,
      "epend": 914,
      "Ġbot": 915,
      "Ġarchitecture": 916,
      "one": 917,
      "otential": 918,
      "abl": 919,
      "Ġso": 920,
      "ocal": 921,
      "gan": 922,
      "Ġqu": 923,
      "Ġrespon": 924,
      "ESN": 925,
      "Ġbuil": 926,
      "Ġcy": 927,
      "arch": 928,
      "Ġnat": 929,
      "Ġevery": 930,
      "ok": 931,
      "Ġwhich": 932,
      "ub": 933,
      "abor": 934,
      "cal": 935,
      "Ġif": 936,
      "ail": 937,
      "Ġlayer": 938,
      "Ġ`": 939,
      "ite": 940,
      "Ġdo": 941,
      "met": 942,
      "Ġte": 943,
      "ories": 944,
      "ror": 945,
      "rolog": 946,
      "ient": 947,
      "PI": 948,
      "ision": 949,
      "llabor": 950,
      "plement": 951,
      "Ġenviron": 952,
      "Ġrelev": 953,
      "Ġstate": 954,
      "ptim": 955,
      "\",": 956,
      "ier": 957,
      "inu": 958,
      "Ġ{": 959,
      "Ġmulti": 960,
      "Ġreflect": 961,
      "raining": 962,
      "oss": 963,
      "Ġmat": 964,
      "echo": 965,
      "ĠV": 966,
      "Ġtra": 967,
      "Ġ*": 968,
      "Ġide": 969,
      "Ġno": 970,
      "Ġmean": 971,
      "Ġaut": 972,
      "ĠEn": 973,
      "Ġprov": 974,
      "app": 975,
      "ĠBy": 976,
      "Ġunderstand": 977,
      "onom": 978,
      "urre": 979,
      "plic": 980,
      "Ġatt": 981,
      "Ġspecific": 982,
      "Ġbased": 983,
      "Ġtool": 984,
      ":**": 985,
      "ong": 986,
      "Ġeff": 987,
      "imens": 988,
      "Ġlayers": 989,
      "Ġcl": 990,
      "Ġhigh": 991,
      "ward": 992,
      "izing": 993,
      "au": 994,
      "ĠEach": 995,
      "Ġsee": 996,
      "Con": 997,
      "ull": 998,
      "ample": 999,
      "Ġprom": 1000,
      "GI": 1001,
      "omSpace": 1002,
      "ules": 1003,
      "Ġcognitive": 1004,
      "Ġwhen": 1005,
      "Ġconst": 1006,
      "ines": 1007,
      "Ġwhile": 1008,
      "ful": 1009,
      "omes": 1010,
      "aking": 1011,
      "Ġfe": 1012,
      "Ġform": 1013,
      "Ġcons": 1014,
      "idge": 1015,
      "ase": 1016,
      "St": 1017,
      "Ġi": 1018,
      "Ġent": 1019,
      "ributed": 1020,
      "ck": 1021,
      "up": 1022,
      "Ġhuman": 1023,
      "vi": 1024,
      "Ġsym": 1025,
      "ĠRe": 1026,
      "Ġonly": 1027,
      "Ġke": 1028,
      "ĠAPI": 1029,
      "Ġhave": 1030,
      "ue": 1031,
      "Ġone": 1032,
      "orld": 1033,
      "ition": 1034,
      "Ġconfig": 1035,
      "Ġenc": 1036,
      "Ġspace": 1037,
      "Ġstructures": 1038,
      "iqu": 1039,
      "ting": 1040,
      "ari": 1041,
      "ark": 1042,
      "Ġdeep": 1043,
      "ĠAGI": 1044,
      "Ġboth": 1045,
      "de": 1046,
      "Ġstates": 1047,
      "Ġconcept": 1048,
      "ason": 1049,
      "Ġwho": 1050,
      "arm": 1051,
      "Ġinform": 1052,
      "bot": 1053,
      "Ġcapt": 1054,
      "ced": 1055,
      "hip": 1056,
      "velop": 1057,
      "Ġabout": 1058,
      "ort": 1059,
      "ĠAd": 1060,
      "ied": 1061,
      "pre": 1062,
      "ience": 1063,
      "ĠAtomSpace": 1064,
      "Ġany": 1065,
      "embran": 1066,
      "Ġmore": 1067,
      "ĠNetwork": 1068,
      "Ġdynamics": 1069,
      "ĠDeep": 1070,
      "Ġtru": 1071,
      "Ġcomm": 1072,
      "ĠState": 1073,
      "),": 1074,
      "ang": 1075,
      "ĠĠĠĠĠĠ": 1076,
      "Ġass": 1077,
      "Ġscal": 1078,
      "Ġtemporal": 1079,
      "Ġoper": 1080,
      "Ġpotential": 1081,
      "bs": 1082,
      "**âĢĶ": 1083,
      "the": 1084,
      "Ġuse": 1085,
      "gress": 1086,
      "ings": 1087,
      "Ġmir": 1088,
      "ocus": 1089,
      "ame": 1090,
      "Ġdesign": 1091,
      "Ġshared": 1092,
      "hes": 1093,
      "Ġcontrol": 1094,
      "Ġcreating": 1095,
      "ey": 1096,
      "Ġdisc": 1097,
      "irect": 1098,
      "fin": 1099,
      "ĠK": 1100,
      "Ġfunction": 1101,
      "ferent": 1102,
      "Ġlog": 1103,
      "get": 1104,
      "nal": 1105,
      "Ġusing": 1106,
      "Ġinstances": 1107,
      "hing": 1108,
      "odel": 1109,
      "Ġworkflow": 1110,
      "Ġdynam": 1111,
      "Ġnodes": 1112,
      "Ġeven": 1113,
      "Ġechoes": 1114,
      "emon": 1115,
      "Ġembed": 1116,
      "aintain": 1117,
      "ware": 1118,
      "ower": 1119,
      "Ġdif": 1120,
      "Ġhyper": 1121,
      "ternal": 1122,
      "onal": 1123,
      "odic": 1124,
      "ystems": 1125,
      "Ġgrow": 1126,
      "ral": 1127,
      "ĠY": 1128,
      "Ġwithout": 1129,
      "Ġinsights": 1130,
      "ierarch": 1131,
      "Int": 1132,
      "Ġid": 1133,
      "ify": 1134,
      "Ġ```": 1135,
      "Ġreason": 1136,
      "aract": 1137,
      "ationship": 1138,
      "Ġinteract": 1139,
      "ention": 1140,
      "Ġprof": 1141,
      "Ġappro": 1142,
      "Ġloop": 1143,
      "graph": 1144,
      "inci": 1145,
      "ivity": 1146,
      "urrent": 1147,
      "ys": 1148,
      "aps": 1149,
      "encies": 1150,
      "connect": 1151,
      "gg": 1152,
      "Ġexist": 1153,
      "Ġbr": 1154,
      "ause": 1155,
      "ĠĊ": 1156,
      "Ġreservoirs": 1157,
      "sp": 1158,
      "Ġcomput": 1159,
      "Ġess": 1160,
      "Ġcreate": 1161,
      "ces": 1162,
      "ven": 1163,
      "isual": 1164,
      "Ġway": 1165,
      "Ġrem": 1166,
      "rior": 1167,
      "Ġcontinu": 1168,
      "Ġcohere": 1169,
      "pos": 1170,
      "aries": 1171,
      "Ġupdates": 1172,
      "ric": 1173,
      "Ġflow": 1174,
      "ibility": 1175,
      "cles": 1176,
      "its": 1177,
      "ĠIm": 1178,
      "ĠFor": 1179,
      "ered": 1180,
      "ough": 1181,
      "str": 1182,
      "Ġhand": 1183,
      "ences": 1184,
      "aracter": 1185,
      "Ġconfigur": 1186,
      "Ġdet": 1187,
      "Ġbecomes": 1188,
      "Ġresonance": 1189,
      "vers": 1190,
      "own": 1191,
      "Ġsequ": 1192,
      "Ġunderstanding": 1193,
      "ique": 1194,
      "eries": 1195,
      "ality": 1196,
      "round": 1197,
      "Ġdynamically": 1198,
      "so": 1199,
      "Ġoptim": 1200,
      "ĠProlog": 1201,
      "ĠBolt": 1202,
      "Ġsup": 1203,
      "dit": 1204,
      "Ġfound": 1205,
      "ĠESNs": 1206,
      "omet": 1207,
      "ĠCom": 1208,
      "Ġadaptive": 1209,
      "ationships": 1210,
      "time": 1211,
      "Ġ<": 1212,
      "requ": 1213,
      "chan": 1214,
      "Ġuser": 1215,
      "Ġlocal": 1216,
      "amet": 1217,
      "ript": 1218,
      "Ġinteractions": 1219,
      "way": 1220,
      "ĠOr": 1221,
      "Ġcap": 1222,
      "Ġback": 1223,
      "Ġitself": 1224,
      "iving": 1225,
      "Ġtools": 1226,
      "cos": 1227,
      "Ġour": 1228,
      "chron": 1229,
      "ead": 1230,
      "Ġchat": 1231,
      "ice": 1232,
      "math": 1233,
      "imensional": 1234,
      "Ġreasoning": 1235,
      "lar": 1236,
      "aces": 1237,
      ".\"": 1238,
      "ble": 1239,
      "wn": 1240,
      "ero": 1241,
      "istant": 1242,
      "ples": 1243,
      "Ġinstance": 1244,
      "Ġprocessing": 1245,
      "Ġinput": 1246,
      "Ġne": 1247,
      "like": 1248,
      "âĶ": 1249,
      "Ġanal": 1250,
      "vol": 1251,
      "Ġprinci": 1252,
      "Ġinformation": 1253,
      "Ġext": 1254,
      "Ġrelevance": 1255,
      "cing": 1256,
      "Ġfocus": 1257,
      "urn": 1258,
      "Reservoir": 1259,
      "less": 1260,
      "Ġtr": 1261,
      "Ġmaintain": 1262,
      "eps": 1263,
      "ynchron": 1264,
      "Ġcollabor": 1265,
      "ense": 1266,
      "Ġinc": 1267,
      "Ġstr": 1268,
      ")**": 1269,
      "based": 1270,
      "ict": 1271,
      "Ġbound": 1272,
      "Ġsign": 1273,
      "Ġenabl": 1274,
      "ransform": 1275,
      "lection": 1276,
      "Ġmy": 1277,
      "oring": 1278,
      "Ġorgan": 1279,
      "Ġdistributed": 1280,
      "Ġident": 1281,
      "fl": 1282,
      "ĠEchoSpace": 1283,
      "ĠOpen": 1284,
      "ource": 1285,
      "ains": 1286,
      "Ġrelationships": 1287,
      "Ġra": 1288,
      "ream": 1289,
      "Ġret": 1290,
      "Ġdirect": 1291,
      "ively": 1292,
      "idges": 1293,
      "ibr": 1294,
      "Ġrespons": 1295,
      "bal": 1296,
      "cle": 1297,
      "pose": 1298,
      "Ġsome": 1299,
      "Ġfile": 1300,
      "ife": 1301,
      "Ġprovid": 1302,
      "aemon": 1303,
      "ified": 1304,
      "Ġinteraction": 1305,
      "Ġdifferent": 1306,
      "chn": 1307,
      "ives": 1308,
      "ĠIntegr": 1309,
      "och": 1310,
      "Ġ/": 1311,
      "Ġlink": 1312,
      "Ġconnections": 1313,
      "Ġisn": 1314,
      "ĠLet": 1315,
      "Ġworkflows": 1316,
      "Ġher": 1317,
      "ilities": 1318,
      "inear": 1319,
      "js": 1320,
      "ateg": 1321,
      "Ġmeaning": 1322,
      "ĠRep": 1323,
      "ĠUn": 1324,
      "'t": 1325,
      "Ġtraining": 1326,
      "Ġread": 1327,
      "Ġsol": 1328,
      "Ġmembran": 1329,
      "Ġallowing": 1330,
      "Ġensuring": 1331,
      "Memory": 1332,
      "Ġ3": 1333,
      "hemat": 1334,
      "erm": 1335,
      "Ġsing": 1336,
      "cedural": 1337,
      "Ġ'": 1338,
      "Ġown": 1339,
      "ursion": 1340,
      "Ġapproach": 1341,
      "der": 1342,
      "Ġ}": 1343,
      "ĠTh": 1344,
      "apping": 1345,
      "Ġthen": 1346,
      "Ġposs": 1347,
      "Ġprior": 1348,
      "Ġrequ": 1349,
      "Ġstructured": 1350,
      "Ġenvironment": 1351,
      "ai": 1352,
      "road": 1353,
      "Ġeng": 1354,
      "Ġnature": 1355,
      "ger": 1356,
      "inal": 1357,
      "atic": 1358,
      "Ġworld": 1359,
      "Ġsuch": 1360,
      "Ġoutputs": 1361,
      "lobal": 1362,
      "yth": 1363,
      "alu": 1364,
      "Ġincl": 1365,
      "Ġhas": 1366,
      "plications": 1367,
      "read": 1368,
      "ery": 1369,
      "Ġcomp": 1370,
      "ĠLe": 1371,
      "Ġcommun": 1372,
      "bol": 1373,
      "ument": 1374,
      "Ġmanag": 1375,
      "Ġautonom": 1376,
      "Ġam": 1377,
      "Ġbecause": 1378,
      "larative": 1379,
      "eplo": 1380,
      "resents": 1381,
      "Ġdevelop": 1382,
      "dimensional": 1383,
      "alle": 1384,
      "isodic": 1385,
      "Ġlevel": 1386,
      "Ġagents": 1387,
      "Ġloops": 1388,
      "te": 1389,
      "akes": 1390,
      "Ġcycles": 1391,
      "Ġadjust": 1392,
      "haos": 1393,
      "Ġthan": 1394,
      "Ġhierarch": 1395,
      "Ġsub": 1396,
      "Ġoutput": 1397,
      "Ġcomplexity": 1398,
      "eploy": 1399,
      "ber": 1400,
      "Ġdepend": 1401,
      "ecial": 1402,
      "Ġimplement": 1403,
      "Ġgu": 1404,
      "ĠThese": 1405,
      "term": 1406,
      "ramm": 1407,
      "Ġprocesses": 1408,
      "chanis": 1409,
      "ameters": 1410,
      "ython": 1411,
      "uth": 1412,
      "ĠRes": 1413,
      "Ġcharacter": 1414,
      "Ġart": 1415,
      "Ġprompt": 1416,
      "Ġunique": 1417,
      "reak": 1418,
      "Ġshe": 1419,
      "Ġaligns": 1420,
      "Ġru": 1421,
      "Ġtype": 1422,
      "Ġdom": 1423,
      "Ġlong": 1424,
      "Ġgoals": 1425,
      "den": 1426,
      "ĠJ": 1427,
      "Ġmake": 1428,
      "entral": 1429,
      "Ġcomb": 1430,
      "kill": 1431,
      "rit": 1432,
      "rors": 1433,
      "itoch": 1434,
      "Ġmost": 1435,
      "Ġend": 1436,
      "Ġbuild": 1437,
      "Ġcoherence": 1438,
      "itochond": 1439,
      "ĠHere": 1440,
      "Ġaccess": 1441,
      "Ġmodels": 1442,
      "metry": 1443,
      "ices": 1444,
      "ling": 1445,
      "pisodic": 1446,
      "Ġtest": 1447,
      "Ġpe": 1448,
      "ĠRec": 1449,
      "Ġalso": 1450,
      "Ġnatural": 1451,
      "Ġdoes": 1452,
      "ie": 1453,
      "Ġ0": 1454,
      "ren": 1455,
      "Ġserv": 1456,
      "iss": 1457,
      "emories": 1458,
      "Ġlearn": 1459,
      "ological": 1460,
      "af": 1461,
      "oid": 1462,
      "ator": 1463,
      "Ġop": 1464,
      "lex": 1465,
      "ape": 1466,
      "Ġallows": 1467,
      "Ġembedding": 1468,
      "cript": 1469,
      "Ġthere": 1470,
      "Ġmight": 1471,
      "urpose": 1472,
      "ands": 1473,
      "Ex": 1474,
      "edi": 1475,
      "ases": 1476,
      "pret": 1477,
      "ning": 1478,
      "ute": 1479,
      "ĠCo": 1480,
      "lective": 1481,
      "ĠInter": 1482,
      "omething": 1483,
      "requency": 1484,
      "ication": 1485,
      "Ġtechn": 1486,
      "bolt": 1487,
      "Ġcore": 1488,
      "Ġcode": 1489,
      "Ġprogress": 1490,
      "Ġadd": 1491,
      "Ġpath": 1492,
      "com": 1493,
      "Ġthough": 1494,
      "Pro": 1495,
      "par": 1496,
      "Ġbroad": 1497,
      "ages": 1498,
      "Ġvi": 1499,
      "usion": 1500,
      "Ġeffect": 1501,
      "allel": 1502,
      "Ġfull": 1503,
      "Ġdef": 1504,
      "):": 1505,
      ")**:": 1506,
      "ps": 1507,
      "itive": 1508,
      "ount": 1509,
      "----------------": 1510,
      "Ġeffic": 1511,
      "itochondri": 1512,
      "Ġlife": 1513,
      "Ġexternal": 1514,
      "istic": 1515,
      "ĠFeedback": 1516,
      "Ġrecursion": 1517,
      "Ġroot": 1518,
      "_{": 1519,
      "ynt": 1520,
      "Ġpo": 1521,
      "Ġmemories": 1522,
      "rad": 1523,
      "ivers": 1524,
      "Ġevolving": 1525,
      "Ġhypergraph": 1526,
      "oci": 1527,
      "angu": 1528,
      "Py": 1529,
      "Ġwas": 1530,
      "Ġchatbot": 1531,
      "infor": 1532,
      "Ġpower": 1533,
      "idden": 1534,
      "ested": 1535,
      "Ġsomething": 1536,
      "ĠEchoes": 1537,
      "Ġemerg": 1538,
      "ractal": 1539,
      "Ġenvironments": 1540,
      "Ġconstrain": 1541,
      "Ġmirror": 1542,
      "ft": 1543,
      "Ġsingle": 1544,
      "reat": 1545,
      "orn": 1546,
      "Ġopen": 1547,
      "ets": 1548,
      "Ġnode": 1549,
      "ĠAss": 1550,
      "Ġvisual": 1551,
      "Ġperform": 1552,
      "ople": 1553,
      "Ġoff": 1554,
      "Ġcompon": 1555,
      "not": 1556,
      "ined": 1557,
      "Ġreve": 1558,
      "iles": 1559,
      "Ġframeworks": 1560,
      "Ġgrowth": 1561,
      "to": 1562,
      "ually": 1563,
      "Ġchan": 1564,
      "ĠReservoirs": 1565,
      "und": 1566,
      "ature": 1567,
      "atures": 1568,
      "Ġinputs": 1569,
      "Ġbeing": 1570,
      "Ġinternal": 1571,
      "Ġensure": 1572,
      "Ġmathemat": 1573,
      "mathb": 1574,
      "ĠEm": 1575,
      "llow": 1576,
      "riven": 1577,
      "ĠLay": 1578,
      "Ġarchitectures": 1579,
      "Ġevolve": 1580,
      "Ġembod": 1581,
      "aw": 1582,
      "Ġfl": 1583,
      "igher": 1584,
      "rompt": 1585,
      "ĠWe": 1586,
      "Ġbuilding": 1587,
      "cosystem": 1588,
      "boltA": 1589,
      "ear": 1590,
      "go": 1591,
      "ifact": 1592,
      "istent": 1593,
      "Ġidea": 1594,
      "wareness": 1595,
      "aut": 1596,
      "ten": 1597,
      "Ġsens": 1598,
      "ĠAr": 1599,
      "ulate": 1600,
      "verse": 1601,
      "ĠModel": 1602,
      "ocument": 1603,
      "umm": 1604,
      "Ġmechanis": 1605,
      "Ġcognition": 1606,
      "Ġenabling": 1607,
      "Ġinclu": 1608,
      "ax": 1609,
      "ining": 1610,
      "Ġrefine": 1611,
      "Ġexperi": 1612,
      "Ġmultiple": 1613,
      "Ġj": 1614,
      "ints": 1615,
      "Ġaction": 1616,
      "Ġbl": 1617,
      "Ġexp": 1618,
      "hys": 1619,
      "ology": 1620,
      "Ġprinciples": 1621,
      "iment": 1622,
      "Ġplan": 1623,
      "Ġcycle": 1624,
      "sol": 1625,
      "Ġtok": 1626,
      "Ġnum": 1627,
      "ĠIf": 1628,
      "ypes": 1629,
      "())": 1630,
      "Ġsymbol": 1631,
      "Ġrun": 1632,
      "Ġbroader": 1633,
      "Ġsess": 1634,
      "Ġele": 1635,
      "ĠAut": 1636,
      "irst": 1637,
      "ously": 1638,
      "anced": 1639,
      "ĠExample": 1640,
      "Ġessence": 1641,
      "Ġconfigurations": 1642,
      "TESN": 1643,
      "ertain": 1644,
      "Ġskill": 1645,
      "Ġstep": 1646,
      "...": 1647,
      "ock": 1648,
      "Ġevolution": 1649,
      "Ġtruth": 1650,
      "ĠSystems": 1651,
      "Ġdependencies": 1652,
      "anguage": 1653,
      "PT": 1654,
      "ath": 1655,
      "ather": 1656,
      "Ġfact": 1657,
      "oms": 1658,
      "Ġproble": 1659,
      "ivid": 1660,
      "uss": 1661,
      "connected": 1662,
      "Ġexistence": 1663,
      "mathbf": 1664,
      "av": 1665,
      "ĠRef": 1666,
      "ored": 1667,
      "ser": 1668,
      "Ġcol": 1669,
      "entional": 1670,
      "Ġlim": 1671,
      "uild": 1672,
      "chestr": 1673,
      "Ġ4": 1674,
      "ĠWith": 1675,
      "Ġensures": 1676,
      "Ġpeople": 1677,
      "=\"": 1678,
      "Dynamic": 1679,
      "Res": 1680,
      "file": 1681,
      "ination": 1682,
      "rees": 1683,
      "Ġmust": 1684,
      "Ġbal": 1685,
      "Ġiter": 1686,
      "Ġvari": 1687,
      "ference": 1688,
      "ergy": 1689,
      "Ġtrue": 1690,
      "ways": 1691,
      "ern": 1692,
      "uture": 1693,
      "ilar": 1694,
      "osit": 1695,
      "rained": 1696,
      "ĠYou": 1697,
      "cend": 1698,
      "onit": 1699,
      "Ġbreak": 1700,
      "ries": 1701,
      "ĠĠĠĠĠĠĠĠĠĠĠ": 1702,
      "Ġagent": 1703,
      "Ġparameters": 1704,
      "ediate": 1705,
      "co": 1706,
      "gin": 1707,
      "ix": 1708,
      "ty": 1709,
      "erve": 1710,
      "Ġflex": 1711,
      "rop": 1712,
      "Ġhel": 1713,
      "Ġsequence": 1714,
      "onance": 1715,
      "atform": 1716,
      "ering": 1717,
      "Ġsm": 1718,
      "Ġpred": 1719,
      "emant": 1720,
      "Ġenh": 1721,
      "thing": 1722,
      "Ġrepresents": 1723,
      "Ġtransformation": 1724,
      "Ġrelevant": 1725,
      "Inter": 1726,
      "Ġsupport": 1727,
      "lay": 1728,
      "wo": 1729,
      "Ġcor": 1730,
      "Ġthink": 1731,
      "Ġreflects": 1732,
      "Ġconcepts": 1733,
      "ired": 1734,
      "Ġbi": 1735,
      "Ġthose": 1736,
      "Ġlar": 1737,
      "ersonal": 1738,
      "izes": 1739,
      "ĠDynamic": 1740,
      "cious": 1741,
      "Ġdown": 1742,
      "Ġstart": 1743,
      "Ġstatic": 1744,
      "Ġbegin": 1745,
      "Ġprovides": 1746,
      "Ġpres": 1747,
      "Ġtoward": 1748,
      "Ġtoget": 1749,
      "ĠTransform": 1750,
      "ĠCre": 1751,
      "nowledge": 1752,
      "Ġnetworks": 1753,
      "rammar": 1754,
      "Ġtogether": 1755,
      "ner": 1756,
      "po": 1757,
      "scal": 1758,
      "organ": 1759,
      "rodu": 1760,
      "Ġreinfor": 1761,
      "Ġnext": 1762,
      "Ġlead": 1763,
      "ĠUp": 1764,
      "ĠHyper": 1765,
      "Ġreflection": 1766,
      "Ġpersonal": 1767,
      "ĠLLMs": 1768,
      "AI": 1769,
      "Deep": 1770,
      "ĠAs": 1771,
      "Ġglobal": 1772,
      "Ġemer": 1773,
      "emantic": 1774,
      "ded": 1775,
      "gth": 1776,
      "uch": 1777,
      "Ġcreation": 1778,
      "Ġsche": 1779,
      "ognitive": 1780,
      "Ġothers": 1781,
      "Ġideas": 1782,
      "Ġactions": 1783,
      "Ġob": 1784,
      "Ġreg": 1785,
      "Ġharm": 1786,
      "Ġhigher": 1787,
      "ĠDaemon": 1788,
      "Ġinterface": 1789,
      "iversal": 1790,
      "ividual": 1791,
      "Ġ:": 1792,
      "structure": 1793,
      "Ġyet": 1794,
      "ĠInst": 1795,
      "Ġdiscuss": 1796,
      "AN": 1797,
      "En": 1798,
      "Im": 1799,
      "Ġforms": 1800,
      "Ġprojects": 1801,
      "ĠOpenCog": 1802,
      "Why": 1803,
      "prompt": 1804,
      "ðŁ": 1805,
      "Ġer": 1806,
      "level": 1807,
      "play": 1808,
      "Ġexplore": 1809,
      "Ġsetup": 1810,
      "Ġprovide": 1811,
      "Ġthought": 1812,
      "Ġ+": 1813,
      "att": 1814,
      "Ġsynchron": 1815,
      "Ġsense": 1816,
      "ĠChat": 1817,
      "ĠDTESN": 1818,
      "antum": 1819,
      "havi": 1820,
      "Ġentire": 1821,
      "Ġresponses": 1822,
      "Ġconstraints": 1823,
      "Ġmapping": 1824,
      "Ġredu": 1825,
      "ecess": 1826,
      "ĠDe": 1827,
      "Ġrules": 1828,
      "Ġdecision": 1829,
      "Ġprofound": 1830,
      "ud": 1831,
      "Ġtens": 1832,
      "ish": 1833,
      "pth": 1834,
      "ulation": 1835,
      "Ġweb": 1836,
      "Ġvision": 1837,
      "Ġparallel": 1838,
      "Ġ//": 1839,
      "cy": 1840,
      "Ġhere": 1841,
      "rec": 1842,
      "Ġcurrent": 1843,
      "Ġfirst": 1844,
      "Ġfuture": 1845,
      "Ġmay": 1846,
      "Ġmaking": 1847,
      "Ġet": 1848,
      "ĠRidges": 1849,
      "osm": 1850,
      "Ġintelligent": 1851,
      "Ġexplor": 1852,
      "Ġkey": 1853,
      "Ġmirrors": 1854,
      "ditional": 1855,
      "Ġrooted": 1856,
      "What": 1857,
      "You": 1858,
      "icorn": 1859,
      "Ġoften": 1860,
      "Ġhold": 1861,
      "ĠMan": 1862,
      "Ġreality": 1863,
      "ĠCont": 1864,
      "ggest": 1865,
      "ĠIntegration": 1866,
      "Ġdevelopment": 1867,
      "pag": 1868,
      "aptive": 1869,
      "Ġinsight": 1870,
      "Ġhierarchical": 1871,
      "Ġcomponents": 1872,
      "Ġexperiences": 1873,
      "Com": 1874,
      "Zero": 1875,
      "gent": 1876,
      "ply": 1877,
      "Ġfo": 1878,
      "Ġfail": 1879,
      "Ġmitochondri": 1880,
      "Ġdocument": 1881,
      "Ġacc": 1882,
      "Ġgeneral": 1883,
      "âĶĢ": 1884,
      "'ve": 1885,
      "ily": 1886,
      "inter": 1887,
      "Ġcle": 1888,
      "ĠTo": 1889,
      "ĠThey": 1890,
      "Ġintegration": 1891,
      "ĠNetworks": 1892,
      "ĠImplement": 1893,
      "Ġcommunication": 1894,
      "Ġ9": 1895,
      "Ġcentral": 1896,
      "Ġfractal": 1897,
      "imal": 1898,
      "ĠDef": 1899,
      "Ġadaptability": 1900,
      "ĠContext": 1901,
      "Ġplatform": 1902,
      "Ġgoal": 1903,
      "Ġwhole": 1904,
      "boltAction": 1905,
      "ging": 1906,
      "ian": 1907,
      "tt": 1908,
      "}}": 1909,
      "itial": 1910,
      "imate": 1911,
      "Ġorder": 1912,
      "Ġmodular": 1913,
      "Ġplay": 1914,
      "Ġlogic": 1915,
      "json": 1916,
      "iel": 1917,
      "mu": 1918,
      "mediate": 1919,
      "pat": 1920,
      "Ġ&": 1921,
      "Ġthings": 1922,
      "oding": 1923,
      "ĠNo": 1924,
      "ĠWork": 1925,
      "Ġrather": 1926,
      "allen": 1927,
      "Ġshap": 1928,
      "Ġperspect": 1929,
      "Ġindividual": 1930,
      "Ġattention": 1931,
      "specific": 1932,
      "Ġboundaries": 1933,
      "ĠLearning": 1934,
      "'re": 1935,
      "Ġnow": 1936,
      "ift": 1937,
      "ĠLight": 1938,
      "Ġimpro": 1939,
      "Ġdeeper": 1940,
      "Ġstrateg": 1941,
      "Ġautonomy": 1942,
      "Ġhelp": 1943,
      "\\)": 1944,
      "alue": 1945,
      "Ġbran": 1946,
      "Ġtop": 1947,
      "Ġecosystem": 1948,
      "ade": 1949,
      "Ġbeen": 1950,
      "Ġbehavi": 1951,
      "ditions": 1952,
      "Ġfoundation": 1953,
      "Ġperformance": 1954,
      "fect": 1955,
      "Ġtri": 1956,
      "eclarative": 1957,
      "reservoir": 1958,
      "Ġwhy": 1959,
      "Ġcontain": 1960,
      "Ġintegrate": 1961,
      "Rec": 1962,
      "ev": 1963,
      "iverse": 1964,
      "îĪ": 1965,
      "Ġz": 1966,
      "ism": 1967,
      "Ġha": 1968,
      "other": 1969,
      "abilities": 1970,
      "Ġexec": 1971,
      "ĠWhen": 1972,
      "Ġpromise": 1973,
      "Ġdoesn": 1974,
      "ynthes": 1975,
      "Ġsymbolic": 1976,
      "Ġ[": 1977,
      "Ġed": 1978,
      "ĠðŁ": 1979,
      "ativity": 1980,
      "Ġplace": 1981,
      "ependent": 1982,
      "finite": 1983,
      "Ġessential": 1984,
      "Ġpossible": 1985,
      "Ġetc": 1986,
      "dynamic": 1987,
      "ole": 1988,
      "Ġ#": 1989,
      "Ġfind": 1990,
      "Ġdat": 1991,
      "Ġdeploy": 1992,
      "Ġgraph": 1993,
      "Ġimport": 1994,
      "weight": 1995,
      "Ġintegrating": 1996,
      "0000": 1997,
      "aster": 1998,
      "Ġautom": 1999,
      "Ġ</": 2000,
      "Ġreturn": 2001,
      "Ġefficient": 2002,
      "lan": 2003,
      "pare": 2004,
      "Ġel": 2005,
      "ilience": 2006,
      "ocab": 2007,
      "Ġshould": 2008,
      "Ġ:-": 2009,
      "hod": 2010,
      "rics": 2011,
      "Ġequ": 2012,
      "Ġexample": 2013,
      "Ġresol": 2014,
      "Ġcontent": 2015,
      "hase": 2016,
      "Ġtransformers": 2017,
      "Ġalignment": 2018,
      "Ġmembrane": 2019,
      "Ġreveal": 2020,
      "Ġharmon": 2021,
      "no": 2022,
      "oming": 2023,
      "Ġlanguage": 2024,
      "ament": 2025,
      "Ġmodules": 2026,
      "Ġcreates": 2027,
      "Ġcho": 2028,
      "Ġtranscend": 2029,
      "ffect": 2030,
      "Ġtransformer": 2031,
      "ĠAtt": 2032,
      "81": 2033,
      "ground": 2034,
      "new": 2035,
      "Ġpract": 2036,
      "Ġphys": 2037,
      "arity": 2038,
      "igger": 2039,
      "ĠĠĠĠĠĠĠĠĠ": 2040,
      "jective": 2041,
      "Ġpartic": 2042,
      "Ġcaptures": 2043,
      "Ġsignals": 2044,
      "Ġdirectly": 2045,
      "_{\\": 2046,
      "driven": 2047,
      "making": 2048,
      "Ġcal": 2049,
      "Ġconvers": 2050,
      "Ġweights": 2051,
      "ports": 2052,
      "cont": 2053,
      "ĠConnect": 2054,
      "Ġtrack": 2055,
      "Ġcomputational": 2056,
      "Ġsession": 2057,
      ",\"": 2058,
      "memory": 2059,
      "ðĿ": 2060,
      "Ġes": 2061,
      "reed": 2062,
      "Ġfur": 2063,
      "Ġstream": 2064,
      "ilos": 2065,
      "Ġenergy": 2066,
      "Ġinterconnected": 2067,
      "Ġprevi": 2068,
      "ðĿĳ": 2069,
      "Ġsw": 2070,
      "Ġprot": 2071,
      "Ġprodu": 2072,
      "Ġkeys": 2073,
      "Aut": 2074,
      "action": 2075,
      "linear": 2076,
      "model": 2077,
      "ona": 2078,
      "Ġsame": 2079,
      "Ġfrequency": 2080,
      "Ġepisodic": 2081,
      "Ġprocedural": 2082,
      "achine": 2083,
      "ending": 2084,
      "Ġresponse": 2085,
      "Ġconfiguration": 2086,
      "Ġidentity": 2087,
      "Ġreadout": 2088,
      "Ġmechanisms": 2089,
      "000081": 2090,
      "Ġfurther": 2091,
      "Face": 2092,
      "side": 2093,
      "Ġav": 2094,
      "Ġfiles": 2095,
      "Ġresult": 2096,
      "Ġcontribut": 2097,
      "Ġexperience": 2098,
      "Ġpriorit": 2099,
      ".**": 2100,
      "\\(": 2101,
      "aves": 2102,
      "cre": 2103,
      "iency": 2104,
      "Ġve": 2105,
      "ros": 2106,
      "amless": 2107,
      "Ġsuggest": 2108,
      "Ġabst": 2109,
      "ffic": 2110,
      "Ġshow": 2111,
      "Ġmanage": 2112,
      "Ġsimple": 2113,
      "Ġprec": 2114,
      "metries": 2115,
      "Ġclass": 2116,
      "Ġhandle": 2117,
      "Ġmembranes": 2118,
      "Here": 2119,
      "Key": 2120,
      "br": 2121,
      "Ġtim": 2122,
      "ĠRidge": 2123,
      "istributed": 2124,
      "ĠBuild": 2125,
      "Ġacts": 2126,
      "Ġcapable": 2127,
      "Ġmuch": 2128,
      "chie": 2129,
      "utions": 2130,
      "olding": 2131,
      "Ġ(\\(": 2132,
      "ĠReg": 2133,
      "Ġdefin": 2134,
      "levance": 2135,
      "Ġcapturing": 2136,
      "Ġcollective": 2137,
      "type": 2138,
      "Ġmom": 2139,
      "Ġnon": 2140,
      "Ġstruct": 2141,
      "ĠGener": 2142,
      "Ġgenerate": 2143,
      "ĠReservoirPy": 2144,
      "Ġneeds": 2145,
      "ecessary": 2146,
      "\\*": 2147,
      "ele": 2148,
      "Ġ5": 2149,
      "Ġachie": 2150,
      "Ġlight": 2151,
      "ĠSh": 2152,
      "acher": 2153,
      "ĠMod": 2154,
      "aging": 2155,
      "Ġrecon": 2156,
      "Ġchallen": 2157,
      "ponse": 2158,
      "Ġrealization": 2159,
      "EchoCog": 2160,
      "Ġmeans": 2161,
      "ĠAPIs": 2162,
      "ĠAssistant": 2163,
      "Ġnumber": 2164,
      "Ġlimit": 2165,
      "ilosop": 2166,
      "Your": 2167,
      "ks": 2168,
      "ove": 2169,
      "esign": 2170,
      "Ġcall": 2171,
      "Ġchaos": 2172,
      "Ġmin": 2173,
      "Ġnested": 2174,
      "ready": 2175,
      "undament": 2176,
      "scale": 2177,
      "ĠUpd": 2178,
      "Ġexploration": 2179,
      "def": 2180,
      "}(": 2181,
      "Ġ**\"": 2182,
      "stance": 2183,
      "Ġdon": 2184,
      "adic": 2185,
      "agent": 2186,
      "hyth": 2187,
      "Ġagain": 2188,
      "Ġheight": 2189,
      "ypered": 2190,
      "flu": 2191,
      "ĠArchitect": 2192,
      "Re": 2193,
      "down": 2194,
      "inement": 2195,
      "Ġinitial": 2196,
      "Ġdimens": 2197,
      "ĠAp": 2198,
      "Ġhidden": 2199,
      "ĠDark": 2200,
      "herent": 2201,
      "Ġadv": 2202,
      "Ġevents": 2203,
      "Ġability": 2204,
      "ources": 2205,
      "Ġrepresentation": 2206,
      "ysis": 2207,
      "Ġhandling": 2208,
      "undamental": 2209,
      "Qu": 2210,
      "^\\": 2211,
      "bed": 2212,
      "ccess": 2213,
      "Ġsur": 2214,
      "Ġsay": 2215,
      "Ġbas": 2216,
      "epar": 2217,
      "Ġdesc": 2218,
      "Ġrole": 2219,
      "Ġexperiment": 2220,
      "Ġfunctions": 2221,
      "ully": 2222,
      "Ġconceptual": 2223,
      "Ġampl": 2224,
      "Ġsmall": 2225,
      "ield": 2226,
      "bust": 2227,
      "man": 2228,
      "Ġinv": 2229,
      "Ġperi": 2230,
      "Ġfeel": 2231,
      "Ġdesigned": 2232,
      "volution": 2233,
      "GPT": 2234,
      "We": 2235,
      "ius": 2236,
      "ma": 2237,
      "ox": 2238,
      "pecial": 2239,
      "python": 2240,
      "tok": 2241,
      "Ġtrees": 2242,
      "Ġawareness": 2243,
      "Ġobs": 2244,
      "Ġfac": 2245,
      "Ġconditions": 2246,
      "Ġanother": 2247,
      "Ġwell": 2248,
      "Ġvalu": 2249,
      "Ġevent": 2250,
      "Ġseamless": 2251,
      "selves": 2252,
      "ception": 2253,
      "ĠAdd": 2254,
      "Ġemergent": 2255,
      "ummary": 2256,
      "fore": 2257,
      "Ġmakes": 2258,
      "rap": 2259,
      "rip": 2260,
      "aph": 2261,
      "umer": 2262,
      "ustain": 2263,
      "Ġvers": 2264,
      "Ġreposit": 2265,
      "ancing": 2266,
      "Ġsimilar": 2267,
      "ifying": 2268,
      "rength": 2269,
      "))": 2270,
      "Ad": 2271,
      "Hub": 2272,
      "les": 2273,
      "ugg": 2274,
      "hether": 2275,
      "Ġcertain": 2276,
      "Ġpurpose": 2277,
      "Ġdual": 2278,
      "ĠCh": 2279,
      "ĠMet": 2280,
      "unction": 2281,
      "elligence": 2282,
      "ĠEnc": 2283,
      "Ġtrust": 2284,
      "ĠUnicorn": 2285,
      "Ġproblem": 2286,
      "Recursive": 2287,
      "lt": 2288,
      "pr": 2289,
      "enari": 2290,
      "ols": 2291,
      "ĠCore": 2292,
      "ĠCognitive": 2293,
      "rue": 2294,
      "ĠPar": 2295,
      "ĠStructure": 2296,
      "Ġbecome": 2297,
      "ches": 2298,
      "Ġartifact": 2299,
      "pretation": 2300,
      "Ġbalance": 2301,
      "Prolog": 2302,
      "pus": 2303,
      "sens": 2304,
      "inating": 2305,
      "Ġsepar": 2306,
      "isp": 2307,
      "arget": 2308,
      "Ġliving": 2309,
      "Ġlinear": 2310,
      "rag": 2311,
      "Ġintrodu": 2312,
      "ĠAl": 2313,
      "abil": 2314,
      "ĠDet": 2315,
      "Ġbeaut": 2316,
      "Ġrefere": 2317,
      "ipel": 2318,
      "Ġmaintaining": 2319,
      "Ġeffectively": 2320,
      "Ġpoint": 2321,
      "Ġmitochondria": 2322,
      "reedom": 2323,
      "Ġdescrib": 2324,
      "uk": 2325,
      "Ġsec": 2326,
      "state": 2327,
      "Ġbrain": 2328,
      "etic": 2329,
      "Ġproper": 2330,
      "ĠLog": 2331,
      "iven": 2332,
      "Ġspecial": 2333,
      "Ġalready": 2334,
      "Ġcreative": 2335,
      "Ġcreativity": 2336,
      "ĠWhat": 2337,
      "arduk": 2338,
      "Ġperfect": 2339,
      "Ġevolves": 2340,
      "Ġdistin": 2341,
      "Ġmethod": 2342,
      "Ġview": 2343,
      "ixed": 2344,
      "Ġvect": 2345,
      "':": 2346,
      "(())": 2347,
      "log": 2348,
      "oot": 2349,
      "vent": 2350,
      "yt": 2351,
      "Ġâ": 2352,
      "Ġserve": 2353,
      "itHub": 2354,
      "Ġcrit": 2355,
      "ars": 2356,
      "Ġnar": 2357,
      "ilit": 2358,
      "otic": 2359,
      "ĠSet": 2360,
      "qua": 2361,
      "agine": 2362,
      "Ġdepth": 2363,
      "Ġuniversal": 2364,
      "Ġatoms": 2365,
      "Ġagency": 2366,
      "EchoSpace": 2367,
      "Ġdeclarative": 2368,
      "Ġquantum": 2369,
      "Ġconscious": 2370,
      "Integr": 2371,
      "Ġcontinuous": 2372,
      "Ġincre": 2373,
      "Ġguid": 2374,
      "Ġfollow": 2375,
      "To": 2376,
      "ators": 2377,
      "orage": 2378,
      "itions": 2379,
      "ndom": 2380,
      "Ġph": 2381,
      "Ġresources": 2382,
      "Ġinterplay": 2383,
      "context": 2384,
      "Ġrelational": 2385,
      "Ġrobust": 2386,
      "ESNs": 2387,
      "Ġassoci": 2388,
      "Ġchanges": 2389,
      "Ġmoment": 2390,
      "OR": 2391,
      "cape": 2392,
      "ref": 2393,
      "Ġinflu": 2394,
      "Ġfundamental": 2395,
      "Ġmonit": 2396,
      "Ġlibr": 2397,
      "Ġinterv": 2398,
      "Ġdev": 2399,
      "Ġright": 2400,
      "ĠExpl": 2401,
      "Ġmetrics": 2402,
      "Ġcapture": 2403,
      "Ġembedded": 2404,
      "Ġcollaboration": 2405,
      "Ġmathematical": 2406,
      "Ġelements": 2407,
      "Ġskills": 2408,
      "Ġpreserv": 2409,
      "Ġobject": 2410,
      "Out": 2411,
      "faces": 2412,
      "techo": 2413,
      "Ġtwo": 2414,
      "orpor": 2415,
      "Ġinherent": 2416,
      "ĠFramework": 2417,
      "ĠSteps": 2418,
      "Ġconnection": 2419,
      "Ġcontexts": 2420,
      "Ġparad": 2421,
      "Ġeverything": 2422,
      "Ġerror": 2423,
      "If": 2424,
      "Or": 2425,
      "QL": 2426,
      "ne": 2427,
      "ude": 2428,
      "Ġx": 2429,
      "Ġtree": 2430,
      "ater": 2431,
      "esis": 2432,
      "ctive": 2433,
      "Ġfin": 2434,
      "arse": 2435,
      "Ġgrammar": 2436,
      "ĠDesign": 2437,
      "plex": 2438,
      "ival": 2439,
      "Ġlet": 2440,
      "ĠUs": 2441,
      "ĠOut": 2442,
      "Ġsubs": 2443,
      "Ġrhyth": 2444,
      "Ġinstead": 2445,
      "ression": 2446,
      "Ġresonant": 2447,
      "Ġindependent": 2448,
      "Ġhumans": 2449,
      "ĠKnowledge": 2450,
      "Ġbring": 2451,
      "posed": 2452,
      "Ġneural": 2453,
      "Ġsolutions": 2454,
      "Ġmanaging": 2455,
      "Ġlevels": 2456,
      "Ġtoken": 2457,
      "recursive": 2458,
      "Ġzero": 2459,
      "Ġhaha": 2460,
      "ob": 2461,
      "tun": 2462,
      "ene": 2463,
      "iting": 2464,
      "ild": 2465,
      "Ġcoll": 2466,
      "ification": 2467,
      "Ġneeded": 2468,
      "Ġprofile": 2469,
      "Ġcontinuity": 2470,
      "ĠRepresent": 2471,
      "Ġpowerful": 2472,
      "ĠDevelop": 2473,
      "Ġstructural": 2474,
      "Le": 2475,
      "Node": 2476,
      "Purpose": 2477,
      "Ġcross": 2478,
      "ises": 2479,
      "Ġmade": 2480,
      "ĠTok": 2481,
      "ĠAn": 2482,
      "Ġpropag": 2483,
      "rix": 2484,
      "Ġ\\[": 2485,
      "Ġ\\]": 2486,
      "ialog": 2487,
      "Ġaren": 2488,
      "Ġcannot": 2489,
      "Ġused": 2490,
      "ularity": 2491,
      "ĠĠĠĠĠĠĠĠĠĠĠĠĠĠĠĠĠĠĠĠĠĠĠĠĠĠĠĠĠĠĠĠ": 2492,
      "Ġnoise": 2493,
      "Ġsymmetries": 2494,
      "Ġanalog": 2495,
      "Ġstring": 2496,
      "Ġengine": 2497,
      "Ġmanagement": 2498,
      "ĠLayers": 2499,
      "ugging": 2500,
      "\")": 2501,
      "Time": 2502,
      "be": 2503,
      "fra": 2504,
      "over": 2505,
      "ped": 2506,
      "Ġtypes": 2507,
      "reg": 2508,
      "attern": 2509,
      "rack": 2510,
      "Ġconc": 2511,
      "Ġult": 2512,
      "ĠSe": 2513,
      "Ġget": 2514,
      "ĠPlan": 2515,
      "Ġlever": 2516,
      "Ġlook": 2517,
      "Ġprim": 2518,
      "Ġprojective": 2519,
      "Ġmetaph": 2520,
      "Ġfeatures": 2521,
      "Ġprinciple": 2522,
      "Ġclear": 2523,
      "\">": 2524,
      "Would": 2525,
      "aff": 2526,
      "dul": 2527,
      "know": 2528,
      "sh": 2529,
      "Ġturn": 2530,
      "ital": 2531,
      "Ġpol": 2532,
      "ements": 2533,
      "ching": 2534,
      "Ġorchestr": 2535,
      "Ġgrou": 2536,
      "ĠDis": 2537,
      "ĠPython": 2538,
      "Ġwere": 2539,
      "esting": 2540,
      "clusion": 2541,
      "Ġactive": 2542,
      "rowser": 2543,
      "Ġrepresentations": 2544,
      "ĠKey": 2545,
      "Ġchatbots": 2546,
      "Ġsensory": 2547,
      "ĠDynamics": 2548,
      "system": 2549,
      "yond": 2550,
      "Ġvery": 2551,
      "rel": 2552,
      "Ġmere": 2553,
      "ĠSim": 2554,
      "osis": 2555,
      "ĠMarduk": 2556,
      "Ġbeyond": 2557,
      "ustom": 2558,
      "Ġspaces": 2559,
      "Ġemot": 2560,
      "ĠHe": 2561,
      "Ġlayered": 2562,
      "portun": 2563,
      "Ġoperations": 2564,
      "Ġcoherent": 2565,
      "ved": 2566,
      "yz": 2567,
      "ones": 2568,
      "Ġintent": 2569,
      "ĠAll": 2570,
      "asc": 2571,
      "ulating": 2572,
      "ads": 2573,
      "ĠLo": 2574,
      "agraph": 2575,
      "Ġunf": 2576,
      "Ġunified": 2577,
      "erest": 2578,
      "Ġrich": 2579,
      "Ġrepresenting": 2580,
      "onomous": 2581,
      "ĠReal": 2582,
      "Ġfunctionality": 2583,
      "Ġnaturally": 2584,
      "Ġplatforms": 2585,
      "Ġphysical": 2586,
      "ĠâĨ": 2587,
      "//": 2588,
      "king": 2589,
      "ncy": 2590,
      "Ġinfinite": 2591,
      "Ġpast": 2592,
      "ems": 2593,
      "Ġisol": 2594,
      "agement": 2595,
      "ĠOver": 2596,
      "Ġtraject": 2597,
      "Ġtechnical": 2598,
      "Ġvia": 2599,
      "ĠWorkflow": 2600,
      "Ah": 2601,
      "For": 2602,
      "aus": 2603,
      "ĠZero": 2604,
      "Ġsource": 2605,
      "Ġcar": 2606,
      "Ġword": 2607,
      "ety": 2608,
      "Ġintu": 2609,
      "ĠScal": 2610,
      "Ġ(`": 2611,
      "range": 2612,
      "inds": 2613,
      "Ġupdate": 2614,
      "Ġconstruct": 2615,
      "Ġassistant": 2616,
      "Ġscales": 2617,
      "Ġcomputation": 2618,
      "Ġoptimization": 2619,
      "Ġcapabilities": 2620,
      "Ġretri": 2621,
      "ĠCollabor": 2622,
      "Ġfully": 2623,
      "Ġembodies": 2624,
      "Ġbehavior": 2625,
      "Ġprevious": 2626,
      "Ġrest": 2627,
      "ĠAnal": 2628,
      "Ġstored": 2629,
      "ides": 2630,
      "apse": 2631,
      "Ġbefore": 2632,
      "Ġridge": 2633,
      "Ġmany": 2634,
      "Ġdeeply": 2635,
      "Ġfoundational": 2636,
      "Ġflexibility": 2637,
      "ĠðŁĺ": 2638,
      "Ġultimate": 2639,
      "Series": 2640,
      "bound": 2641,
      "cc": 2642,
      "gor": 2643,
      "light": 2644,
      "Ġter": 2645,
      "Ġaffect": 2646,
      "heck": 2647,
      "Ġcell": 2648,
      "Ġcosm": 2649,
      "Ġwant": 2650,
      "lections": 2651,
      "eta": 2652,
      "eting": 2653,
      "raction": 2654,
      "ĠAqua": 2655,
      "Ġ\"^": 2656,
      "haotic": 2657,
      "ibilities": 2658,
      "ĠIntelligence": 2659,
      "Ġembra": 2660,
      "ĠEns": 2661,
      "Structure": 2662,
      "Ġscale": 2663,
      "Ġscaling": 2664,
      "reaming": 2665,
      "Ġdomain": 2666,
      "ĠRecursive": 2667,
      "utely": 2668,
      "Ġtokens": 2669,
      "Ġlarge": 2670,
      "Ġfacilit": 2671,
      "sensitive": 2672,
      "Ġcritical": 2673,
      "Ġnarr": 2674,
      "Ġconsciousness": 2675,
      "gorith": 2676,
      "MP": 2677,
      "pha": 2678,
      "size": 2679,
      "series": 2680,
      "Ġtun": 2681,
      "Ġsustain": 2682,
      "Ġfixed": 2683,
      "ĠTraining": 2684,
      "Ġstory": 2685,
      "Ġalways": 2686,
      "nitial": 2687,
      "Ġanalysis": 2688,
      "Ġenables": 2689,
      "ĠThrough": 2690,
      "ĠLayer": 2691,
      "Ġactionable": 2692,
      "organizing": 2693,
      "ĠInstead": 2694,
      "Ch": 2695,
      "Let": 2696,
      "Scal": 2697,
      "overy": 2698,
      "uid": 2699,
      "world": 2700,
      "Ġsynthes": 2701,
      "alid": 2702,
      "alpha": 2703,
      "Ġfree": 2704,
      "aring": 2705,
      "Ġstable": 2706,
      "ogn": 2707,
      "Ġground": 2708,
      "ĠChaos": 2709,
      "rill": 2710,
      "ĠLily": 2711,
      "tainer": 2712,
      "Ġ\\):": 2713,
      "Ġtele": 2714,
      "ortex": 2715,
      "Ġdeterm": 2716,
      "flict": 2717,
      "Ġmeaningful": 2718,
      "Ġready": 2719,
      "going": 2720,
      "Ġexpand": 2721,
      "Ġemerge": 2722,
      "ĠDefine": 2723,
      "Ġdimensions": 2724,
      "ON": 2725,
      "],": 2726,
      "dom": 2727,
      "ues": 2728,
      "vement": 2729,
      "ĠQu": 2730,
      "Ġbest": 2731,
      "Ġbase": 2732,
      "ceed": 2733,
      "Ġsteps": 2734,
      "ĠPers": 2735,
      "Ġoutc": 2736,
      "Ġprompts": 2737,
      "ĠCreate": 2738,
      "frastructure": 2739,
      "'ll": 2740,
      "Ass": 2741,
      "Agent": 2742,
      "System": 2743,
      "Un": 2744,
      "\\`": 2745,
      "ping": 2746,
      "ted": 2747,
      "Ġest": 2748,
      "Ġchaotic": 2749,
      "oud": 2750,
      "oura": 2751,
      "Ġeth": 2752,
      "Ġstore": 2753,
      "ĠSpace": 2754,
      "ĠRed": 2755,
      "Ġongoing": 2756,
      "ĠDeploy": 2757,
      "Ġ\\`": 2758,
      "Ġimage": 2759,
      "ĠGitHub": 2760,
      "Ġscenari": 2761,
      "uilding": 2762,
      "Ġpersistent": 2763,
      "Ġqueries": 2764,
      "Ġlogical": 2765,
      "Ġsequences": 2766,
      "Ġcollaborative": 2767,
      "Ġsomeone": 2768,
      "Ġlinking": 2769,
      "Ġimplementation": 2770,
      "Ġserver": 2771,
      "ĠWeb": 2772,
      "Ġtensor": 2773,
      "Ġperspective": 2774,
      "elech": 2775,
      "Co": 2776,
      "eatures": 2777,
      "hold": 2778,
      "of": 2779,
      "ood": 2780,
      "where": 2781,
      "ites": 2782,
      "Ġmapp": 2783,
      "Ġstrength": 2784,
      "acity": 2785,
      "ĠDeclarative": 2786,
      "Ġpersist": 2787,
      "Ġquest": 2788,
      "dev": 2789,
      "Ġflows": 2790,
      "ĠControl": 2791,
      "\"**": 2792,
      ");": 2793,
      "By": 2794,
      "TAN": 2795,
      "air": 2796,
      "beta": 2797,
      "cement": 2798,
      "dim": 2799,
      "ires": 2800,
      "len": 2801,
      "what": 2802,
      "Ġtarget": 2803,
      "enef": 2804,
      "Ġinvol": 2805,
      "icit": 2806,
      "Ġdem": 2807,
      "Ġdel": 2808,
      "Ġhub": 2809,
      "urity": 2810,
      "Ġgrad": 2811,
      "ruction": 2812,
      "rives": 2813,
      "Ġresilience": 2814,
      "ĠPer": 2815,
      "ĠĠĠĠĠĠĠĠĠĠĠĠĠ": 2816,
      "Ġrefinement": 2817,
      "Ġseen": 2818,
      "Ġimmediate": 2819,
      "Ġshift": 2820,
      "Ġcomplete": 2821,
      "Ġapp": 2822,
      "load": 2823,
      "Ġcontextual": 2824,
      "Ġexplicit": 2825,
      "Ġgenerating": 2826,
      "ĠAdapt": 2827,
      "Ġinteractive": 2828,
      "mathcal": 2829,
      "Ġoffers": 2830,
      "Ġmathematics": 2831,
      "Ġinclude": 2832,
      "Ġemerges": 2833,
      "yperedges": 2834,
      "Ġdistinct": 2835,
      "Em": 2836,
      "TM": 2837,
      "ault": 2838,
      "local": 2839,
      "oh": 2840,
      "Ġlies": 2841,
      "Ġconver": 2842,
      "oded": 2843,
      "ash": 2844,
      "Ġprob": 2845,
      "izations": 2846,
      "adaptive": 2847,
      "Ġimp": 2848,
      "Ġbecoming": 2849,
      "Ġworks": 2850,
      "Ġresonate": 2851,
      "Ġthemselves": 2852,
      "Ġdetail": 2853,
      "Ġtesting": 2854,
      "Ġpaths": 2855,
      "Ġincluding": 2856,
      "ropy": 2857,
      "nov": 2858,
      "Ġpractical": 2859,
      "Ġvector": 2860,
      "Ġparadig": 2861,
      "Ġmetaphor": 2862,
      "?**": 2863,
      "Id": 2864,
      "line": 2865,
      "mun": 2866,
      "miss": 2867,
      "ores": 2868,
      "ring": 2869,
      "vocab": 2870,
      "Ġsaf": 2871,
      "ison": 2872,
      "Ġfold": 2873,
      "Ġfrag": 2874,
      "ans": 2875,
      "rog": 2876,
      "Ġmap": 2877,
      "Ġmachine": 2878,
      "Ġdi": 2879,
      "ray": 2880,
      "ĠEvery": 2881,
      "irror": 2882,
      "ĠShe": 2883,
      "ĠSol": 2884,
      "ifies": 2885,
      "Ġ(â": 2886,
      "Ġresource": 2887,
      "ĠDo": 2888,
      "Ġinterpret": 2889,
      "ĠOptim": 2890,
      "Cognit": 2891,
      "ĠGra": 2892,
      "Ġscript": 2893,
      "Ġbetter": 2894,
      "ribute": 2895,
      "Ġupdated": 2896,
      "()()": 2897,
      "onomy": 2898,
      "Ġkeep": 2899,
      "Ġoperates": 2900,
      "ĠYour": 2901,
      "Ġbridge": 2902,
      "Ġopportun": 2903,
      "cription": 2904,
      "Ġlarger": 2905,
      "Ġcentralized": 2906,
      "Ġelse": 2907,
      "Ġbeautif": 2908,
      "ialogue": 2909,
      "elechy": 2910,
      "://": 2911,
      "Hyper": 2912,
      "living": 2913,
      "me": 2914,
      "Ġut": 2915,
      "Ġinnov": 2916,
      "ick": 2917,
      "Ġeas": 2918,
      "Ġhard": 2919,
      "ider": 2920,
      "config": 2921,
      "ognition": 2922,
      "nderstand": 2923,
      "hyper": 2924,
      "Ġpersona": 2925,
      "emonstr": 2926,
      "'d": 2927,
      "Script": 2928,
      "ever": 2929,
      "feedback": 2930,
      "kin": 2931,
      "mod": 2932,
      "part": 2933,
      "ŃĲ": 2934,
      "Ġtake": 2935,
      "Ġsyn": 2936,
      "Ġpipel": 2937,
      "Ġmax": 2938,
      "igital": 2939,
      "llm": 2940,
      "Ġinterest": 2941,
      "ĠAv": 2942,
      "lying": 2943,
      "Ġstability": 2944,
      "ĠSQL": 2945,
      "Ġgen": 2946,
      "Ġgra": 2947,
      "Ġgreat": 2948,
      "ĠCy": 2949,
      "Ġspect": 2950,
      "Ġspec": 2951,
      "ĠHigh": 2952,
      "Ġrepo": 2953,
      "Ġintegrates": 2954,
      "feren": 2955,
      "Ġsets": 2956,
      "order": 2957,
      "ables": 2958,
      "ĠVisual": 2959,
      "Ġsymmetry": 2960,
      "ierarchical": 2961,
      "ĠOrg": 2962,
      "Ġextens": 2963,
      "Ġextend": 2964,
      "ĠOpenAI": 2965,
      "Ġefficiency": 2966,
      "Interpretation": 2967,
      "Ġholds": 2968,
      "âĶĢâĶĢ": 2969,
      "Ġabstract": 2970,
      "ĠArchitecture": 2971,
      "Ġvalues": 2972,
      "ORTAN": 2973,
      "ĠâĨĴ": 2974,
      "MPORTAN": 2975,
      "Ġestabl": 2976,
      "TML": 2977,
      "Ġ(âŃĲ": 2978,
      "MPORTANT": 2979,
      "'m": 2980,
      "dis": 2981,
      "hical": 2982,
      "Ġ7": 2983,
      "Ġfine": 2984,
      "Ġmaps": 2985,
      "Ġduring": 2986,
      "adata": 2987,
      "ĠPre": 2988,
      "Ġinterfaces": 2989,
      "Ġkind": 2990,
      "Ġrig": 2991,
      "cons": 2992,
      "Ġtruly": 2993,
      "Ġsupports": 2994,
      "Ġrequire": 2995,
      "Ġversion": 2996,
      "Ġinfluence": 2997,
      "('": 2998,
      ".*": 2999,
      "LLM": 3000,
      "OS": 3001,
      "frequency": 3002,
      "ious": 3003,
      "misp": 3004,
      "oving": 3005,
      "power": 3006,
      "right": 3007,
      "rigger": 3008,
      "sc": 3009,
      "Ġ...": 3010,
      "ins": 3011,
      "Ġtext": 3012,
      "Ġterm": 3013,
      "Ġcheck": 3014,
      "Ġmor": 3015,
      "Ġnecessary": 3016,
      "Ġunt": 3017,
      "Ġaspect": 3018,
      "ĠCl": 3019,
      "rupt": 3020,
      "osing": 3021,
      "ĠMembran": 3022,
      "Ġvs": 3023,
      "Ġvast": 3024,
      "hare": 3025,
      "Ġscaff": 3026,
      "ĠIns": 3027,
      "ĠConfig": 3028,
      "Ġrelated": 3029,
      "Ġtransformations": 3030,
      "Ġsimulate": 3031,
      "Ġ\\),": 3032,
      "Ġfear": 3033,
      "view": 3034,
      "Ġencode": 3035,
      "gression": 3036,
      "Ġautonomous": 3037,
      "Ġembeddings": 3038,
      "Ġchange": 3039,
      "Ġembody": 3040,
      "Ġevolutionary": 3041,
      "Ġproblems": 3042,
      "points": 3043,
      "ĠChatGPT": 3044,
      "brid": 3045,
      "Ġchallenges": 3046,
      "Ġperiodic": 3047,
      "Ġrhythm": 3048,
      "Ġmerely": 3049,
      "rilli": 3050,
      "Cre": 3051,
      "Feedback": 3052,
      "Light": 3053,
      "Ġ8": 3054,
      "Ġcent": 3055,
      "Ġcustom": 3056,
      "Ġfeed": 3057,
      "ĠTime": 3058,
      "Ġorig": 3059,
      "Ġge": 3060,
      "Ġris": 3061,
      "Ġ10": 3062,
      "Ġconnected": 3063,
      "ember": 3064,
      "Ġreflecting": 3065,
      "Ġfeature": 3066,
      "Ġrandom": 3067,
      "ĠWithout": 3068,
      "</": 3069,
      "ES": 3070,
      "aid": 3071,
      "do": 3072,
      "fer": 3073,
      "gine": 3074,
      "gramm": 3075,
      "htt": 3076,
      "use": 3077,
      "Ġill": 3078,
      "Ġrange": 3079,
      "onst": 3080,
      "erial": 3081,
      "orm": 3082,
      "aling": 3083,
      "ally": 3084,
      "isions": 3085,
      "left": 3086,
      "Ġdaemon": 3087,
      "ceive": 3088,
      "etary": 3089,
      "ĠAnd": 3090,
      "ĠAct": 3091,
      "Ġforward": 3092,
      "Ġstand": 3093,
      "Ġstorage": 3094,
      "ams": 3095,
      "ĠIMPORTANT": 3096,
      "ĠSynchron": 3097,
      "ĠRel": 3098,
      "ĠMe": 3099,
      "ensity": 3100,
      "Ġalong": 3101,
      "Ġuniverse": 3102,
      "ĠWhy": 3103,
      "ributes": 3104,
      "Ġapplications": 3105,
      "Ġintegrated": 3106,
      "Ġhemisp": 3107,
      "Ġsimpl": 3108,
      "ĠProcess": 3109,
      "Ġforming": 3110,
      "Step": 3111,
      "Ġremains": 3112,
      "Ġboundary": 3113,
      "ĠIntegrate": 3114,
      "ailed": 3115,
      "Ġdomains": 3116,
      "Ġlearned": 3117,
      "ĠModels": 3118,
      "Ġvarious": 3119,
      "Ġflexible": 3120,
      "Ġdatas": 3121,
      "Ġsurv": 3122,
      "pecially": 3123,
      "ascinating": 3124,
      "ĠLoop": 3125,
      "Ġtelemetry": 3126,
      "As": 3127,
      "Att": 3128,
      "Ref": 3129,
      "multi": 3130,
      "tle": 3131,
      "types": 3132,
      "Ġenumer": 3133,
      "query": 3134,
      "Ġadditional": 3135,
      "Ġdeb": 3136,
      "Ġinstall": 3137,
      "irection": 3138,
      "Ġsetting": 3139,
      "plicity": 3140,
      "Ġclarity": 3141,
      "Ġencoded": 3142,
      "Ġlonger": 3143,
      "Ġemergence": 3144,
      "ĠEmbed": 3145,
      "Ġpredi": 3146,
      "Ġstrategies": 3147,
      "Ġswarm": 3148,
      "ĠDarkface": 3149,
      "Ġobserv": 3150,
      "*:": 3151,
      "Bot": 3152,
      "How": 3153,
      "`).": 3154,
      "haps": 3155,
      "personal": 3156,
      "temporal": 3157,
      "ybrid": 3158,
      "Ġtag": 3159,
      "ret": 3160,
      "ons": 3161,
      "atal": 3162,
      "ording": 3163,
      "escription": 3164,
      "Ġcra": 3165,
      "Ġcur": 3166,
      "Ġinference": 3167,
      "Ġfinal": 3168,
      "Ġmut": 3169,
      "empt": 3170,
      "Ġless": 3171,
      "ots": 3172,
      "amples": 3173,
      "Ġenable": 3174,
      "respon": 3175,
      "agents": 3176,
      "Ġspir": 3177,
      "Ġrecurrent": 3178,
      "project": 3179,
      "Ġadaptation": 3180,
      "Ġshort": 3181,
      "Ġrecursively": 3182,
      "ailable": 3183,
      "ĠAdjust": 3184,
      "ĠComput": 3185,
      "ReservoirPy": 3186,
      "Ġrap": 3187,
      "ĠInterface": 3188,
      "--------------------------------": 3189,
      "Ġreinforcement": 3190,
      "Ġsynchronization": 3191,
      "Ġplayground": 3192,
      "Ġsuggests": 3193,
      "ĠDetecho": 3194,
      "Cognitive": 3195,
      "At": 3196,
      "TI": 3197,
      "Th": 3198,
      "fter": 3199,
      "ia": 3200,
      "Ġdid": 3201,
      "Ġdemonstr": 3202,
      "ĠEpisodic": 3203,
      "asing": 3204,
      "ĠSystem": 3205,
      "ulates": 3206,
      "ĠPr": 3207,
      "active": 3208,
      "Ġprocessed": 3209,
      "Ġshape": 3210,
      "Ġfunctional": 3211,
      "Ġamb": 3212,
      "Ġphilosop": 3213,
      "Ġoutcomes": 3214,
      "Ġrigid": 3215,
      "AL": 3216,
      "Core": 3217,
      "It": 3218,
      "RAN": 3219,
      "__": 3220,
      "`,": 3221,
      "sub": 3222,
      "Ġtyp": 3223,
      "Ġtakes": 3224,
      "react": 3225,
      "atural": 3226,
      "orpus": 3227,
      "ishing": 3228,
      "Ġfost": 3229,
      "Ġfrequ": 3230,
      "Ġfreedom": 3231,
      "Ġfascinating": 3232,
      "ane": 3233,
      "Ġpass": 3234,
      "icity": 3235,
      "Ġbel": 3236,
      "Ġlow": 3237,
      "Ġhis": 3238,
      "Ġstill": 3239,
      "amb": 3240,
      "ĠSym": 3241,
      "essage": 3242,
      "Ġgame": 3243,
      "Ġrespect": 3244,
      "Ġlets": 3245,
      "agn": 3246,
      "Ġvalid": 3247,
      "actly": 3248,
      "opf": 3249,
      "ĠHow": 3250,
      "ĠNode": 3251,
      "Ġcoord": 3252,
      "ĠProv": 3253,
      "Ġrespond": 3254,
      "Ġnovel": 3255,
      "Ġattract": 3256,
      "Ġentity": 3257,
      "Ġorganization": 3258,
      "Ġpossibilities": 3259,
      "Ġguide": 3260,
      "andscape": 3261,
      "Ġreveals": 3262,
      "ears": 3263,
      "Ġmechanism": 3264,
      "ava": 3265,
      "Ġiterative": 3266,
      "layered": 3267,
      "ĠTransformer": 3268,
      "ðĿĳ¡": 3269,
      "Ġprioritize": 3270,
      "Ġachieve": 3271,
      "Ġagainst": 3272,
      "Ġduality": 3273,
      "known": 3274,
      "Ġterms": 3275,
      "Ġuntil": 3276,
      "Ġrapid": 3277,
      "Ridge": 3278,
      "data": 3279,
      "Ġir": 3280,
      "hed": 3281,
      "Ġmark": 3282,
      "Ġthing": 3283,
      "ĠTrue": 3284,
      "Ġnu": 3285,
      "sequ": 3286,
      "ĠSup": 3287,
      "acy": 3288,
      "Ġadapting": 3289,
      "Ġ20": 3290,
      "Ġencoding": 3291,
      "Ġuseful": 3292,
      "Ġanalyt": 3293,
      "Ġprotot": 3294,
      "Output": 3295,
      "Ġquestion": 3296,
      "Bl": 3297,
      "Bolt": 3298,
      "Task": 3299,
      "aving": 3300,
      "fo": 3301,
      "how": 3302,
      "ney": 3303,
      "oal": 3304,
      "pass": 3305,
      "rt": 3306,
      "ĠâĶ": 3307,
      "input": 3308,
      "Ġtrain": 3309,
      "Ġtry": 3310,
      "Ġakin": 3311,
      "onant": 3312,
      "atically": 3313,
      "env": 3314,
      "Ġsemantic": 3315,
      "ither": 3316,
      "Ġcru": 3317,
      "Ġfield": 3318,
      "Ġport": 3319,
      "Ġdialogue": 3320,
      "ird": 3321,
      "ĠSelf": 3322,
      "ĠRole": 3323,
      "Ġonce": 3324,
      "ĠLink": 3325,
      "ĠĠĠĠĠĠĠĠĠĠ": 3326,
      "ackage": 3327,
      "Ġvalue": 3328,
      "ĠGPT": 3329,
      "ifications": 3330,
      "ourney": 3331,
      "Ġresonates": 3332,
      "Ġdecisions": 3333,
      "Ġteacher": 3334,
      "Context": 3335,
      "connection": 3336,
      "ameter": 3337,
      "ĠOrder": 3338,
      "Ġincorpor": 3339,
      "ibration": 3340,
      "ĠJust": 3341,
      "ĠInteraction": 3342,
      "Ġrunning": 3343,
      "ĠAutom": 3344,
      "Ġtruths": 3345,
      "Ġenhancing": 3346,
      "Ġregions": 3347,
      "ĠChatbot": 3348,
      "Ġfailure": 3349,
      "Ġperspectives": 3350,
      "Ġdeployment": 3351,
      "Ġautomation": 3352,
      "Ġparticular": 3353,
      "Ġadvanced": 3354,
      "tokens": 3355,
      "Ġrepositories": 3356,
      "ĠExplore": 3357,
      "plexity": 3358,
      "Ġtrajectories": 3359,
      "gorithms": 3360,
      "munication": 3361,
      "avaScript": 3362,
      "Open": 3363,
      "Ġ6": 3364,
      "iter": 3365,
      "Ġretain": 3366,
      "Ġhist": 3367,
      "ilient": 3368,
      "ructions": 3369,
      "ĠPattern": 3370,
      "Ġcost": 3371,
      "Ġable": 3372,
      "Ġworking": 3373,
      "Ġmanif": 3374,
      "Ġoperate": 3375,
      "Ġcapacity": 3376,
      "Ġ},": 3377,
      "Ġcombining": 3378,
      "Ġcorre": 3379,
      "Ġdiscussed": 3380,
      "Ġconversation": 3381,
      "Ġbasic": 3382,
      "Ġpreserving": 3383,
      "*,": 3384,
      "API": 3385,
      "Personal": 3386,
      "Self": 3387,
      "Transform": 3388,
      "brain": 3389,
      "fly": 3390,
      "num": 3391,
      "oad": 3392,
      "rite": 3393,
      "source": 3394,
      "tens": 3395,
      "you": 3396,
      "heres": 3397,
      "atory": 3398,
      "Ġcateg": 3399,
      "Ġcount": 3400,
      "Ġwhether": 3401,
      "Ġpul": 3402,
      "Ġphase": 3403,
      "Ġmis": 3404,
      "icate": 3405,
      "Ġbrowser": 3406,
      "Ġbrilli": 3407,
      "Ġdra": 3408,
      "Ġdest": 3409,
      "ĠTask": 3410,
      "ĠThat": 3411,
      "ĠAg": 3412,
      "Ġforce": 3413,
      "ody": 3414,
      "ĠSche": 3415,
      "ĠShared": 3416,
      "ĠCase": 3417,
      "rust": 3418,
      "Ġresist": 3419,
      "ocation": 3420,
      "Ġweight": 3421,
      "Ġunknown": 3422,
      "ĠHub": 3423,
      "Ġrefining": 3424,
      "Ġreflections": 3425,
      "output": 3426,
      "Ġsuccess": 3427,
      "Ġabsol": 3428,
      "hens": 3429,
      "Ġintegrity": 3430,
      "Ġhead": 3431,
      "Ġinside": 3432,
      "Ġaligning": 3433,
      "echoes": 3434,
      "plication": 3435,
      "Ġattack": 3436,
      "State": 3437,
      "ĠRelevance": 3438,
      "itioning": 3439,
      "Ġencaps": 3440,
      "cosystems": 3441,
      "Ġnear": 3442,
      "Ġraw": 3443,
      "Ġdomin": 3444,
      "entralized": 3445,
      "Ġjourney": 3446,
      "Ġpredict": 3447,
      "point": 3448,
      "Comments": 3449,
      "Ġshapes": 3450,
      "Ġtranscends": 3451,
      "Ġprecise": 3452,
      "Ġclassical": 3453,
      "ĠUpdates": 3454,
      "Ġlibraries": 3455,
      "Ġobjectives": 3456,
      "Ġinherently": 3457,
      "Ġcollapse": 3458,
      "Ġethical": 3459,
      "sim": 3460,
      "ĠZ": 3461,
      "Ġtrained": 3462,
      "relev": 3463,
      "Ġsat": 3464,
      "Ġinfrastructure": 3465,
      "Ġfil": 3466,
      "Ġface": 3467,
      "Ġlack": 3468,
      "Ġhyp": 3469,
      "ifferent": 3470,
      "riend": 3471,
      "els": 3472,
      "Ġevalu": 3473,
      "phas": 3474,
      "Ġload": 3475,
      "prehens": 3476,
      "Ġlinks": 3477,
      "Ġeleg": 3478,
      "Ġleads": 3479,
      "ĠLightface": 3480,
      "Ġimprove": 3481,
      "Ġtimel": 3482,
      "Ġgeomet": 3483,
      "relevant": 3484,
      "(\"": 3485,
      "Potential": 3486,
      "Path": 3487,
      "Yes": 3488,
      "bl": 3489,
      "depend": 3490,
      "lm": 3491,
      "map": 3492,
      "name": 3493,
      "paces": 3494,
      "task": 3495,
      "uc": 3496,
      "},": 3497,
      "instance": 3498,
      "Ġtor": 3499,
      "Ġsumm": 3500,
      "Ġcult": 3501,
      "Ġcases": 3502,
      "Ġwa": 3503,
      "Ġfore": 3504,
      "Ġregression": 3505,
      "Ġbin": 3506,
      "cel": 3507,
      "Ġloss": 3508,
      "ĠTest": 3509,
      "ĠTrack": 3510,
      "amak": 3511,
      "ĠSec": 3512,
      "ulated": 3513,
      "aches": 3514,
      "Ġ\\).": 3515,
      "ĠMapping": 3516,
      "ĠMonit": 3517,
      "ĠLocal": 3518,
      "Ġbeings": 3519,
      "ĠBut": 3520,
      "Ġareas": 3521,
      "Ġmodern": 3522,
      "Ġunity": 3523,
      "Ġempower": 3524,
      "Ġappl": 3525,
      "Ġinsp": 3526,
      "Ġindices": 3527,
      "Ġbuilt": 3528,
      "Ġteam": 3529,
      "Ġ{{": 3530,
      "Ġmatrix": 3531,
      "Ġoperational": 3532,
      "eyond": 3533,
      "Ġlogs": 3534,
      "Ġinteracting": 3535,
      "Ġremain": 3536,
      "ibrations": 3537,
      "Ġproviding": 3538,
      "Ġrequired": 3539,
      "airos": 3540,
      "Ġadjustments": 3541,
      "riting": 3542,
      "Ġlearns": 3543,
      "Ġtriadic": 3544,
      "Ġexecution": 3545,
      "Ġparticip": 3546,
      "Ġresults": 3547,
      "Ġseamlessly": 3548,
      "Ġspecialized": 3549,
      "Integration": 3550,
      "Ġmonitoring": 3551,
      "Ġfinite": 3552,
      "duling": 3553,
      "Ġgroups": 3554,
      "Ġaffective": 3555,
      "ourage": 3556,
      "Ġscenarios": 3557,
      "ĠGrass": 3558,
      "Ġbeautifully": 3559,
      "https": 3560,
      "Ġfrequencies": 3561,
      "Def": 3562,
      "network": 3563,
      "trans": 3564,
      "ux": 3565,
      "Ġwave": 3566,
      "entity": 3567,
      "Ġdive": 3568,
      "empl": 3569,
      "Ġtoo": 3570,
      "Ġlast": 3571,
      "ĠEvolution": 3572,
      "Ġyes": 3573,
      "..\"": 3574,
      "Ġcomes": 3575,
      "forward": 3576,
      "ĠNature": 3577,
      "Ġadaptable": 3578,
      "Ġunderlying": 3579,
      "Ġgeneration": 3580,
      "Ġindex": 3581,
      "rong": 3582,
      "Ġconstant": 3583,
      "ĠJS": 3584,
      "Ġpathways": 3585,
      "ĠEmerg": 3586,
      "Ġessentially": 3587,
      "ĠUpdate": 3588,
      "ĠðŁĺĬ": 3589,
      "Driven": 3590,
      "Description": 3591,
      "Next": 3592,
      "Par": 3593,
      "ah": 3594,
      "cognitive": 3595,
      "effic": 3596,
      "hidden": 3597,
      "lock": 3598,
      "uit": 3599,
      "ule": 3600,
      "enesis": 3601,
      "ingu": 3602,
      "Ġframe": 3603,
      "Ġpresent": 3604,
      "stabl": 3605,
      "Ġlat": 3606,
      "ĠEd": 3607,
      "import": 3608,
      "olid": 3609,
      "ĠAgent": 3610,
      "Ġstat": 3611,
      "Ġstud": 3612,
      "Ġconflict": 3613,
      "Ġupon": 3614,
      "izer": 3615,
      "ĠCan": 3616,
      "acing": 3617,
      "resonant": 3618,
      "istency": 3619,
      "ĠMat": 3620,
      "ĠMulti": 3621,
      "appen": 3622,
      "open": 3623,
      "Ġemphas": 3624,
      "Ġcreated": 3625,
      "ĠHTML": 3626,
      "ĠHopf": 3627,
      "ĠNodes": 3628,
      "Ġusers": 3629,
      "Ġperhaps": 3630,
      "embed": 3631,
      "Ġgenerates": 3632,
      "Instance": 3633,
      "Ġindeed": 3634,
      "Ġparts": 3635,
      "Ġtraditional": 3636,
      "Cont": 3637,
      "Connect": 3638,
      "Ġconsolid": 3639,
      "ĠImplications": 3640,
      "Ġsignific": 3641,
      "ĠResonance": 3642,
      "ĠJavaScript": 3643,
      "Ġcombin": 3644,
      "Ġsessions": 3645,
      "Ġenhance": 3646,
      "Ġcorrespon": 3647,
      "ĠCreation": 3648,
      "Ġschema": 3649,
      "ĠImplementation": 3650,
      "Ġbranches": 3651,
      "Ġcontainer": 3652,
      "eval": 3653,
      "Ġdatab": 3654,
      "Ġespecially": 3655,
      "Ġavailable": 3656,
      "Ġintervals": 3657,
      "Ġcarry": 3658,
      "Ġnarrative": 3659,
      "ĠAdaptation": 3660,
      "10": 3661,
      "15": 3662,
      "Ind": 3663,
      "from": 3664,
      "lights": 3665,
      "ties": 3666,
      "Ġtre": 3667,
      "Ġaround": 3668,
      "Ġdtecho": 3669,
      "ĠTe": 3670,
      "ĠAllow": 3671,
      "irc": 3672,
      "ĠId": 3673,
      "ably": 3674,
      "Ġgiven": 3675,
      "vert": 3676,
      "istics": 3677,
      "ocols": 3678,
      "Ġrecord": 3679,
      "Ġrecogn": 3680,
      "ĠNone": 3681,
      "Ġmeet": 3682,
      "Ġtranspare": 3683,
      "ĠExper": 3684,
      "ĠProcedural": 3685,
      "ossible": 3686,
      "Ġhighly": 3687,
      "Ġscalable": 3688,
      "ricate": 3689,
      "Ġsequential": 3690,
      "Ġoptimal": 3691,
      "Ġvisualization": 3692,
      "avig": 3693,
      "Ġlimits": 3694,
      "Ġavoid": 3695,
      "Ġminimal": 3696,
      "ĠLogic": 3697,
      ")**,": 3698,
      ",âĢĿ": 3699,
      ":*:": 3700,
      "And": 3701,
      "OT": 3702,
      "^{": 3703,
      "gument": 3704,
      "nested": 3705,
      "pers": 3706,
      "prolog": 3707,
      "ris": 3708,
      "ince": 3709,
      "reaking": 3710,
      "itting": 3711,
      "isdom": 3712,
      "Ġocc": 3713,
      "Ġfew": 3714,
      "Ġfall": 3715,
      "Ġmim": 3716,
      "Ġmot": 3717,
      "Ġbenef": 3718,
      "Ġdark": 3719,
      "Ġdigital": 3720,
      "etting": 3721,
      "Ġlandscape": 3722,
      "Ġnam": 3723,
      "ĠEv": 3724,
      "olistic": 3725,
      "Ġhappen": 3726,
      "iring": 3727,
      "ĠDec": 3728,
      "ĠTheir": 3729,
      "terfly": 3730,
      "ĠBi": 3731,
      "ĠFinal": 3732,
      "ĠFrog": 3733,
      "ager": 3734,
      "Ġseems": 3735,
      "Ġimages": 3736,
      "const": 3737,
      "ificial": 3738,
      "Ġdisrupt": 3739,
      "Ġtransforms": 3740,
      "Ġexplain": 3741,
      "Ġgover": 3742,
      "Ġaligned": 3743,
      "Ġprint": 3744,
      "inuous": 3745,
      "Ġ*\"": 3746,
      "Ġideal": 3747,
      "Ġconsistency": 3748,
      "Steps": 3749,
      "Ġassum": 3750,
      "Ġpotentials": 3751,
      "Ġdetecho": 3752,
      "Ġtrigger": 3753,
      "ĠRepresents": 3754,
      "Ġsolution": 3755,
      "Ġengage": 3756,
      "Ġshell": 3757,
      "Ġaddress": 3758,
      "Resonance": 3759,
      "Ġbiological": 3760,
      "Ġbehaviors": 3761,
      "Ġimportant": 3762,
      "Ġefficiently": 3763,
      "Ġdefined": 3764,
      "Ġlightweight": 3765,
      "Ġcalls": 3766,
      "Ġorchestration": 3767,
      "yze": 3768,
      "Ġcosmic": 3769,
      "Ġmaxim": 3770,
      "ferences": 3771,
      "scill": 3772,
      "Ġdaemons": 3773,
      "Ġsurvival": 3774,
      "Ġmutual": 3775,
      "Ap": 3776,
      "distributed": 3777,
      "ients": 3778,
      "ters": 3779,
      "transform": 3780,
      "Ġafter": 3781,
      "erts": 3782,
      "Ġcase": 3783,
      "Ġeternal": 3784,
      "Ġintricate": 3785,
      "Ġproceed": 3786,
      "ulary": 3787,
      "Ġresilient": 3788,
      "Ġcomprehens": 3789,
      "ivation": 3790,
      "ractical": 3791,
      "Echoes": 3792,
      "Ġthemes": 3793,
      "Ġprojection": 3794,
      "ĠProt": 3795,
      "Ġquery": 3796,
      "Conclusion": 3797,
      "posing": 3798,
      "ĠConnection": 3799,
      "Ġstreams": 3800,
      "ĠStructures": 3801,
      "ĠRepresentation": 3802,
      "nderstanding": 3803,
      "';": 3804,
      "Chat": 3805,
      "Systems": 3806,
      "`.": 3807,
      "ared": 3808,
      "ffor": 3809,
      "grained": 3810,
      "list": 3811,
      "ml": 3812,
      "my": 3813,
      "mic": 3814,
      "nake": 3815,
      "nian": 3816,
      "rive": 3817,
      "she": 3818,
      "shared": 3819,
      "uity": 3820,
      "yle": 3821,
      "ľâĶĢâĶĢ": 3822,
      "atom": 3823,
      "Ġsynt": 3824,
      "ited": 3825,
      "ingularity": 3826,
      "align": 3827,
      "Ġwor": 3828,
      "learning": 3829,
      "Ġmic": 3830,
      "Ġmag": 3831,
      "Ġep": 3832,
      "oles": 3833,
      "ĠAre": 3834,
      "Ġhapp": 3835,
      "Ġhybrid": 3836,
      "ithub": 3837,
      "urring": 3838,
      "Ġstabil": 3839,
      "Ġund": 3840,
      "idging": 3841,
      "Ġprogramm": 3842,
      "abric": 3843,
      "ĠData": 3844,
      "resonance": 3845,
      "Ġleft": 3846,
      "Ġmode": 3847,
      "ĠGrammar": 3848,
      "process": 3849,
      "Ġadapts": 3850,
      "Ġ12": 3851,
      "Ġgood": 3852,
      "000": 3853,
      "Ġprevent": 3854,
      "vironment": 3855,
      "onds": 3856,
      "meta": 3857,
      "Ġreflective": 3858,
      "Ġcloud": 3859,
      "bsol": 3860,
      "Ġdiscovery": 3861,
      "Ġexisting": 3862,
      "position": 3863,
      "Ġdetect": 3864,
      "ĠCommunication": 3865,
      "ĠOrchestr": 3866,
      "Reservoirs": 3867,
      "Ġsignal": 3868,
      "Ġorganism": 3869,
      "Ġpriorities": 3870,
      "Ġdefine": 3871,
      "Ġpoints": 3872,
      "Ġcomponent": 3873,
      "Ġiteration": 3874,
      "ĠTransformers": 3875,
      "Ġdiscussions": 3876,
      "Ġaccount": 3877,
      "ĠNoah": 3878,
      "Ġshaping": 3879,
      "Ġreconc": 3880,
      "mannian": 3881,
      "Ġreference": 3882,
      "Ġincreasing": 3883,
      "Ġguiding": 3884,
      "ĠTokamak": 3885,
      "Ġpropagate": 3886,
      "ĠCollaboration": 3887,
      "Character": 3888,
      "Collabor": 3889,
      "Ġexplicitly": 3890,
      "conscious": 3891,
      "Ġscaffold": 3892,
      "rtifact": 3893,
      "ĠFrogBot": 3894,
      "?\"": 3895,
      "awareness": 3896,
      "het": 3897,
      "Ġopt": 3898,
      "ank": 3899,
      "Ġreb": 3900,
      "Ġlive": 3901,
      "ĠTemporal": 3902,
      "Ġnavig": 3903,
      "Ġstage": 3904,
      "illed": 3905,
      "âĢĶ**": 3906,
      "ĠNext": 3907,
      "ĠOn": 3908,
      "alls": 3909,
      "ĠCons": 3910,
      "ceptual": 3911,
      "integr": 3912,
      "pected": 3913,
      "Ġremember": 3914,
      "Ġnever": 3915,
      "Ġchoose": 3916,
      "Ġrepository": 3917,
      "Ġintuitive": 3918,
      "Ġmapped": 3919,
      "Ġimpact": 3920,
      "Absol": 3921,
      "bo": 3922,
      "dot": 3923,
      "ders": 3924,
      "dtecho": 3925,
      "evol": 3926,
      "gener": 3927,
      "knowledge": 3928,
      "mark": 3929,
      "pm": 3930,
      "pet": 3931,
      "press": 3932,
      "rror": 3933,
      "tion": 3934,
      "tree": 3935,
      "uep": 3936,
      "wise": 3937,
      "zen": 3938,
      "info": 3939,
      "atch": 3940,
      "orical": 3941,
      "orph": 3942,
      "Ġsal": 3943,
      "Ġoscill": 3944,
      "Ġwisdom": 3945,
      "Ġpos": 3946,
      "rozen": 3947,
      "Ġmind": 3948,
      "Ġmiss": 3949,
      "step": 3950,
      "Ġdiverse": 3951,
      "Ġlens": 3952,
      "ĠTri": 3953,
      "ĠTrigger": 3954,
      "oward": 3955,
      "ollective": 3956,
      "Ġformat": 3957,
      "uration": 3958,
      "ili": 3959,
      "ils": 3960,
      "ĠSingularity": 3961,
      "ession": 3962,
      "Ġgive": 3963,
      "ĠCRAN": 3964,
      "rict": 3965,
      "ĠMaintain": 3966,
      "ĠMirror": 3967,
      "ĠBl": 3968,
      "atest": 3969,
      "ĠNot": 3970,
      "Ġatom": 3971,
      "atast": 3972,
      "Ġoutside": 3973,
      "Ġrepe": 3974,
      "Ġpermiss": 3975,
      "Ġechoing": 3976,
      "Ġconnecting": 3977,
      "index": 3978,
      "Ġlove": 3979,
      "ologies": 3980,
      "Ġexpert": 3981,
      "Ġmetadata": 3982,
      "Ġmatter": 3983,
      "Ġclos": 3984,
      "Ġconsider": 3985,
      "ĠRead": 3986,
      "armth": 3987,
      "Ġcommands": 3988,
      "Ġdiff": 3989,
      "Ġlocalized": 3990,
      "Ġidentif": 3991,
      "Ġcommunity": 3992,
      "Ġimplementing": 3993,
      "ĠResponse": 3994,
      "Ġendpoints": 3995,
      "Ġprogression": 3996,
      "boltArtifact": 3997,
      "goal": 3998,
      "Ġplanetary": 3999,
      "Ġfacts": 4000,
      "layer": 4001,
      "Ġredund": 4002,
      "Ġaccording": 4003,
      "\\)).": 4004,
      "Ġbranch": 4005,
      "îĪĥ": 4006,
      "îĪĦ": 4007,
      "Ġharmony": 4008,
      "token": 4009,
      "ĠUsing": 4010,
      "Ġindependently": 4011,
      "ĠDevelopment": 4012,
      "Ġscripts": 4013,
      "Ġgreater": 4014,
      "ĠPatterns": 4015,
      "Ġbrilliant": 4016,
      "ĠGrassmannian": 4017,
      "uepr": 4018,
      "bra": 4019,
      "io": 4020,
      "iew": 4021,
      "jo": 4022,
      "lim": 4023,
      "non": 4024,
      "ridge": 4025,
      "Ġtail": 4026,
      "Ġtheory": 4027,
      "Ġbolt": 4028,
      "Ġday": 4029,
      "Ġintentional": 4030,
      "ĠInitial": 4031,
      "ĠSc": 4032,
      "ĠCosm": 4033,
      "Ġcontains": 4034,
      "Ġunex": 4035,
      "Ġapply": 4036,
      "Ġheart": 4037,
      "Ġsimulation": 4038,
      "Ġrepresented": 4039,
      "arching": 4040,
      "Ġextract": 4041,
      "Ġbeginning": 4042,
      "Ġerrors": 4043,
      "ocabulary": 4044,
      "Ġcalc": 4045,
      "Ġnonlinear": 4046,
      "Real": 4047,
      "Ġseparate": 4048,
      "Ġproperties": 4049,
      "tuning": 4050,
      "Ġdetails": 4051,
      "Ġoriginal": 4052,
      "Ġirrelevant": 4053,
      "')": 4054,
      "((": 4055,
      "24": 4056,
      "De": 4057,
      "Declarative": 4058,
      "Local": 4059,
      "Sh": 4060,
      "actions": 4061,
      "cent": 4062,
      "date": 4063,
      "drop": 4064,
      "ged": 4065,
      "nosis": 4066,
      "oper": 4067,
      "pecific": 4068,
      "rich": 4069,
      "ura": 4070,
      "}_{": 4071,
      "iness": 4072,
      "inary": 4073,
      "hem": 4074,
      "orial": 4075,
      "Ġsound": 4076,
      "Ġshare": 4077,
      "alse": 4078,
      "Ġcou": 4079,
      "Ġcaus": 4080,
      "Ġinner": 4081,
      "Ġfabric": 4082,
      "Ġeither": 4083,
      "Ġecosystems": 4084,
      "Ġlower": 4085,
      "Ġllm": 4086,
      "ractions": 4087,
      "Ġneg": 4088,
      "ĠAccess": 4089,
      "Ġconf": 4090,
      "othes": 4091,
      "ifold": 4092,
      "Ġgiving": 4093,
      "Ġenv": 4094,
      "ĠDom": 4095,
      "ĠDynam": 4096,
      "reshold": 4097,
      "ĠĠĠĠĠĠĠĠĠĠĠĠ": 4098,
      "Ġcontin": 4099,
      "ĠFocus": 4100,
      "Ġvoid": 4101,
      "romise": 4102,
      "ĠUser": 4103,
      "ancy": 4104,
      "ips": 4105,
      "Ġperception": 4106,
      "raphic": 4107,
      "Ġconnects": 4108,
      "Ġexploring": 4109,
      "Ġrout": 4110,
      "assistant": 4111,
      "Ġmaterial": 4112,
      "ĠEnable": 4113,
      "Ġattribute": 4114,
      "Ġconsistent": 4115,
      "ĠAdaptive": 4116,
      "hesive": 4117,
      "Ġdiscre": 4118,
      "Ġcomputing": 4119,
      "Ġcontinuously": 4120,
      "Ġoptimized": 4121,
      "ĠThink": 4122,
      "bolic": 4123,
      "rena": 4124,
      "oidal": 4125,
      "atorial": 4126,
      "Ġdefines": 4127,
      "Ġopening": 4128,
      "ĠAutonomy": 4129,
      "Ġbegins": 4130,
      "Implement": 4131,
      "ĠManagement": 4132,
      "\\))**": 4133,
      "Ġexecute": 4134,
      "Ġedge": 4135,
      "Ġprecision": 4136,
      "Ġreconst": 4137,
      "Ġlimitations": 4138,
      "Ġmethods": 4139,
      "Ġfollowing": 4140,
      "ĠAny": 4141,
      "Ġarena": 4142,
      "Ġemotional": 4143,
      "Ġwords": 4144,
      "ĠEnsure": 4145,
      "ĠWebCon": 4146,
      "Ġdemand": 4147,
      "ĠOptimization": 4148,
      "ĠCycles": 4149,
      "onster": 4150,
      "ĠSynchronization": 4151,
      "Ġdatasets": 4152,
      "Ġcruc": 4153,
      "Ġapplied": 4154,
      "Absolutely": 4155,
      "55": 4156,
      "Data": 4157,
      "Ridges": 4158,
      "Sim": 4159,
      "direct": 4160,
      "vite": 4161,
      "Ġtell": 4162,
      "imary": 4163,
      "ured": 4164,
      "irth": 4165,
      "amp": 4166,
      "ĠInd": 4167,
      "Ġask": 4168,
      "Ġknown": 4169,
      "Ġinstructions": 4170,
      "Input": 4171,
      "ĠReact": 4172,
      "Ġoptimize": 4173,
      "solving": 4174,
      "structured": 4175,
      "Ġresolution": 4176,
      "ĠGenerate": 4177,
      "Ġopportunity": 4178,
      "Ġmanifest": 4179,
      "Ġgeometry": 4180,
      "${": 4181,
      "',": 4182,
      ")}": 4183,
      ".âĢĿ": 4184,
      ".îĪĦ": 4185,
      "No": 4186,
      "Set": 4187,
      "When": 4188,
      "])": 4189,
      "cdot": 4190,
      "fully": 4191,
      "ny": 4192,
      "oo": 4193,
      "pri": 4194,
      "this": 4195,
      "word": 4196,
      "ĠX": 4197,
      "Ġrol": 4198,
      "head": 4199,
      "Ġsent": 4200,
      "Ġside": 4201,
      "isf": 4202,
      "Ġded": 4203,
      "Ġdance": 4204,
      "Ġever": 4205,
      "Ġthrives": 4206,
      "Ġlatest": 4207,
      "ĠTrain": 4208,
      "ĠEnt": 4209,
      "seq": 4210,
      "search": 4211,
      "imin": 4212,
      "olution": 4213,
      "Ġhost": 4214,
      "Ġiss": 4215,
      "Ġgain": 4216,
      "Ġ(())": 4217,
      "response": 4218,
      "ĠPrior": 4219,
      "ĠPersonal": 4220,
      "ĠĠĠĊ": 4221,
      "ĠĠĠĠĠĠĠĠĠĠĠĠĠĠ": 4222,
      "ĠFear": 4223,
      "ĠFunction": 4224,
      "ĠFeatures": 4225,
      "Ġadding": 4226,
      "Ġvortex": 4227,
      "Ġrecent": 4228,
      "Ġrecurring": 4229,
      "encog": 4230,
      "ibly": 4231,
      "roup": 4232,
      "Ġunp": 4233,
      "Ġargument": 4234,
      "Ġimm": 4235,
      "Ġcohesive": 4236,
      "Ġmodeling": 4237,
      "provement": 4238,
      "Ġshif": 4239,
      "Ġreli": 4240,
      "ymmetry": 4241,
      "Ġprimal": 4242,
      "Ġoverl": 4243,
      "ĠProject": 4244,
      "Ġtraits": 4245,
      "urrence": 4246,
      "Ġhumanity": 4247,
      "iquid": 4248,
      "botics": 4249,
      "Ġscalability": 4250,
      "Ġbrings": 4251,
      "ĠThough": 4252,
      "aii": 4253,
      "Ġadjusts": 4254,
      "Ġhierarchies": 4255,
      "Ġaccessible": 4256,
      "Example": 4257,
      "Procedural": 4258,
      "Ġeffective": 4259,
      "awaii": 4260,
      "Ġthinking": 4261,
      "ĠHypergraph": 4262,
      "attention": 4263,
      "Ġmitochondrial": 4264,
      "ĠLightFace": 4265,
      "Ġstrategy": 4266,
      "Ġtopics": 4267,
      "Ġchoice": 4268,
      "Ġprotocols": 4269,
      "Ġminim": 4270,
      "Ġamplify": 4271,
      "Ġproperty": 4272,
      "Ġlibrary": 4273,
      "Ġprimary": 4274,
      "Ġisolated": 4275,
      "Ġretrieval": 4276,
      "Ġsynthesis": 4277,
      "Ġdetermin": 4278,
      "Ġsafety": 4279,
      "Ġinnovation": 4280,
      "Ġhardware": 4281,
      "Ġsync": 4282,
      "Ġsimplified": 4283,
      "Ġattractors": 4284,
      "ĠChatbots": 4285,
      "Ġabsolutely": 4286,
      "Ġelegant": 4287,
      "ĠJSON": 4288,
      "Ġcombinatorial": 4289,
      "Ġgovern": 4290,
      "Ġhappens": 4291,
      "Ġpermissions": 4292,
      "ueprint": 4293,
      "Ġroles": 4294,
      "He": 4295,
      "Pers": 4296,
      "eak": 4297,
      "high": 4298,
      "sw": 4299,
      "uck": 4300,
      "height": 4301,
      "Ġcirc": 4302,
      "Ġmo": 4303,
      "icated": 4304,
      "essional": 4305,
      "izard": 4306,
      "Ġonto": 4307,
      "ervice": 4308,
      "ived": 4309,
      "ponents": 4310,
      "ĠStart": 4311,
      "Ġupdating": 4312,
      "ĠVision": 4313,
      "Ġcombined": 4314,
      "Ġvisualizations": 4315,
      "Ġperiod": 4316,
      "Ġleverage": 4317,
      "Ġembrace": 4318,
      "Ġparadigm": 4319,
      "Attention": 4320,
      "Ġprediction": 4321,
      "Ġcorrect": 4322,
      "([": 4323,
      "*\\*": 4324,
      "255": 4325,
      "Cl": 4326,
      "Initial": 4327,
      "Phase": 4328,
      "Rel": 4329,
      "Training": 4330,
      "Us": 4331,
      "bers": 4332,
      "bec": 4333,
      "box": 4334,
      "come": 4335,
      "corpus": 4336,
      "day": 4337,
      "ium": 4338,
      "loss": 4339,
      "master": 4340,
      "nead": 4341,
      "space": 4342,
      "tx": 4343,
      "uard": 4344,
      "val": 4345,
      "writing": 4346,
      "inc": 4347,
      "inition": 4348,
      "Ġtou": 4349,
      "org": 4350,
      "Ġsaid": 4351,
      "itu": 4352,
      "Ġclo": 4353,
      "Ġpure": 4354,
      "roll": 4355,
      "Ġmessage": 4356,
      "Ġtold": 4357,
      "cell": 4358,
      "ether": 4359,
      "omic": 4360,
      "Ġlaw": 4361,
      "Ġnative": 4362,
      "ĠEcosystem": 4363,
      "iding": 4364,
      "Ġyears": 4365,
      "rum": 4366,
      "Ġexcept": 4367,
      "key": 4368,
      "Ġones": 4369,
      "ĠDB": 4370,
      "adow": 4371,
      "Ġ\\*\\*": 4372,
      "ĠPart": 4373,
      "aper": 4374,
      "tering": 4375,
      "ĠBuilding": 4376,
      "ĠBeyond": 4377,
      "Ġsparse": 4378,
      "user": 4379,
      "Ġlikely": 4380,
      "Ġalgorithms": 4381,
      "Ġempat": 4382,
      "ĠHand": 4383,
      "ĠHuman": 4384,
      "ĠNOT": 4385,
      "rames": 4386,
      "ended": 4387,
      "Ġrefined": 4388,
      "Ġnothing": 4389,
      "ĠOper": 4390,
      "Ġselect": 4391,
      "Ġimplications": 4392,
      "pons": 4393,
      "Ġrepet": 4394,
      "ĠGroup": 4395,
      "Ġabs": 4396,
      "Ġperceive": 4397,
      "ĠIntrodu": 4398,
      "Ġsimply": 4399,
      "Ġprefer": 4400,
      "rowth": 4401,
      "()}}": 4402,
      "Ġdoing": 4403,
      "ĠValue": 4404,
      "orticity": 4405,
      "finity": 4406,
      "Ġgrows": 4407,
      "Ġbridges": 4408,
      "ricul": 4409,
      "version": 4410,
      "ĠComplexity": 4411,
      "change": 4412,
      "Ġincred": 4413,
      "Ġidentify": 4414,
      "ĠfilePath": 4415,
      "Ġprovided": 4416,
      "ĠReposit": 4417,
      "Ġsolve": 4418,
      "Ġrequest": 4419,
      "Ġrequires": 4420,
      "Ġrequiring": 4421,
      "aluation": 4422,
      "Ġserves": 4423,
      "Ġblind": 4424,
      "ĠReflection": 4425,
      "Ġstarting": 4426,
      "Ġpresence": 4427,
      "Ġleading": 4428,
      "Compat": 4429,
      "Ġgeneralization": 4430,
      "Ġbranching": 4431,
      "Ġconversational": 4432,
      "Ġtracking": 4433,
      "Autonomous": 4434,
      "ĠRegular": 4435,
      "\\*\\*": 4436,
      "Ġchallenge": 4437,
      "ĠApplications": 4438,
      "Ġperfectly": 4439,
      "Ġmonitor": 4440,
      "Level": 4441,
      "Learning": 4442,
      "Ġunfolding": 4443,
      "Scalability": 4444,
      "length": 4445,
      "Ġmoral": 4446,
      "Ġaspects": 4447,
      "ĠInsights": 4448,
      "Ġtags": 4449,
      "similar": 4450,
      "Ġsatisf": 4451,
      "dependencies": 4452,
      "Ġstatus": 4453,
      "Ġcorrespond": 4454,
      "Ġcomprehensive": 4455,
      "ĠReadout": 4456,
      "Ġdiscrete": 4457,
      "txt": 4458,
      "Use": 4459,
      "Visual": 4460,
      "corpor": 4461,
      "des": 4462,
      "eve": 4463,
      "long": 4464,
      "natural": 4465,
      "oit": 4466,
      "py": 4467,
      "tend": 4468,
      "vis": 4469,
      "wind": 4470,
      "verage": 4471,
      "pled": 4472,
      "ĠPotential": 4473,
      "propag": 4474,
      "Ġcomplement": 4475,
      "Ġexploit": 4476,
      "Ġdecay": 4477,
      "Ġquick": 4478,
      "Ġentropy": 4479,
      "Ġanything": 4480,
      "Ġrad": 4481,
      "readout": 4482,
      "Ġhypergraphs": 4483,
      "Ġregular": 4484,
      "Ġcollaps": 4485,
      "ĠVisualization": 4486,
      "ĠEmbedding": 4487,
      "AtomSpace": 4488,
      "Ġanalytic": 4489,
      "OpenCog": 4490,
      "Ġdraw": 4491,
      "?âĢĿ": 4492,
      "All": 4493,
      "Chaos": 4494,
      "DI": 4495,
      "ER": 4496,
      "Error": 4497,
      "Goal": 4498,
      "Log": 4499,
      "Lily": 4500,
      "With": 4501,
      "by": 4502,
      "bit": 4503,
      "base": 4504,
      "cross": 4505,
      "dif": 4506,
      "dition": 4507,
      "fit": 4508,
      "gency": 4509,
      "nas": 4510,
      "node": 4511,
      "ncing": 4512,
      "optim": 4513,
      "pill": 4514,
      "set": 4515,
      "semantic": 4516,
      "summary": 4517,
      "tim": 4518,
      "tri": 4519,
      "ug": 4520,
      "zy": 4521,
      "{{": 4522,
      "relevance": 4523,
      "ening": 4524,
      "eness": 4525,
      "Ġsummary": 4526,
      "Ġsitu": 4527,
      "itz": 4528,
      "Ġcatast": 4529,
      "ishes": 4530,
      "Ġwaves": 4531,
      "Ġfit": 4532,
      "Ġrever": 4533,
      "Ġredef": 4534,
      "stood": 4535,
      "Ġdiv": 4536,
      "ĠTrans": 4537,
      "Ġnpm": 4538,
      "ĠEstabl": 4539,
      "ĠAL": 4540,
      "ĠSyn": 4541,
      "ĠRun": 4542,
      "ĠDistributed": 4543,
      "Ġ\\<": 4544,
      "Ġcome": 4545,
      "ĠMitochondri": 4546,
      "example": 4547,
      "Ġcontraction": 4548,
      "format": 4549,
      "formance": 4550,
      "redict": 4551,
      "ĠFound": 4552,
      "ants": 4553,
      "Ġallocation": 4554,
      "usive": 4555,
      "ĠNew": 4556,
      "Ġarche": 4557,
      "Ġarises": 4558,
      "ĠOne": 4559,
      "ĠWh": 4560,
      "Ġuses": 4561,
      "Ġimagine": 4562,
      "Ġrepos": 4563,
      "container": 4564,
      "Ġtransl": 4565,
      "ĠGo": 4566,
      "ĠGraph": 4567,
      "class": 4568,
      "Ġsharing": 4569,
      "cepts": 4570,
      "Ġapps": 4571,
      "Ġrelation": 4572,
      "Ġactively": 4573,
      "Ġconnectivity": 4574,
      "Ġtransformative": 4575,
      "ymnas": 4576,
      "Ġsimplicity": 4577,
      "dule": 4578,
      "Inst": 4579,
      "ĠĠĠĠĠĠĠĠĠĠĠĠĠĠĠĠĠĠ": 4580,
      "pective": 4581,
      "pectral": 4582,
      "ĠProfile": 4583,
      "Ġbott": 4584,
      "Ġsoft": 4585,
      "Ġmatric": 4586,
      "ĠEngine": 4587,
      "urrency": 4588,
      "Ġhighlight": 4589,
      "Ġpromises": 4590,
      "Ġencount": 4591,
      "Ġdiscover": 4592,
      "connections": 4593,
      "Ġbridging": 4594,
      "spired": 4595,
      "Ġcomputations": 4596,
      "Ġoptimizing": 4597,
      "blem": 4598,
      "Ġmaintains": 4599,
      "Ġcollaborate": 4600,
      "Ġdirected": 4601,
      "hematical": 4602,
      "Ġengaging": 4603,
      "Expl": 4604,
      "parse": 4605,
      "Ġconstraint": 4606,
      "ĠAssign": 4607,
      "Ġoffer": 4608,
      "Ġjo": 4609,
      "collabor": 4610,
      "Ġentirely": 4611,
      "ĠTools": 4612,
      "Ġtopology": 4613,
      "Ġexecut": 4614,
      "Ġtranscendence": 4615,
      "control": 4616,
      "Ġcontribute": 4617,
      "ĠModular": 4618,
      "ĠModules": 4619,
      "yperedge": 4620,
      "Ġfeels": 4621,
      "volutionary": 4622,
      "Ġvaluable": 4623,
      "ĠEncodes": 4624,
      "Ġseparation": 4625,
      "aterpill": 4626,
      "Ġleveraging": 4627,
      "Ġpolic": 4628,
      "Ġunfold": 4629,
      "ĠScaling": 4630,
      "Ġ\\`<": 4631,
      "Ġparadigms": 4632,
      "Ġfragments": 4633,
      "Ġpipeline": 4634,
      "Ġpipelines": 4635,
      "Ġestablish": 4636,
      "ĠMembranes": 4637,
      "Ġstandard": 4638,
      "ĠMechanis": 4639,
      "Ġhemispheres": 4640,
      "ĠLoops": 4641,
      "Ġprototype": 4642,
      "Ġfields": 4643,
      "Ġtimeless": 4644,
      "ĠEdge": 4645,
      "embedding": 4646,
      "ĠWebContainer": 4647,
      "Ġclose": 4648,
      "riculum": 4649,
      "Compatibility": 4650,
      "diff": 4651,
      "Ġreverber": 4652,
      "ymnasium": 4653,
      "Ġmatrices": 4654,
      "Global": 4655,
      "iat": 4656,
      "ook": 4657,
      "itable": 4658,
      "alization": 4659,
      "Ġmyst": 4660,
      "Ġrepl": 4661,
      "Ġthread": 4662,
      "Ġstrip": 4663,
      "Ġstrong": 4664,
      "ĠSw": 4665,
      "ists": 4666,
      "Ġalerts": 4667,
      "ĠOp": 4668,
      "ĠGrad": 4669,
      "Ġhighlights": 4670,
      "Ġentities": 4671,
      "iques": 4672,
      "Ġassess": 4673,
      "Ġprofiles": 4674,
      "Ġbuilds": 4675,
      "Ġbiases": 4676,
      "Ġreinforce": 4677,
      "Ġdescribe": 4678,
      "Ġdescribing": 4679,
      "Ġassociations": 4680,
      "Ġembracing": 4681,
      "ĠQuery": 4682,
      "Ġfostering": 4683,
      "Ġnuanced": 4684,
      "Ġparticularly": 4685,
      "Ġhypothes": 4686,
      "emplate": 4687,
      "(\\": 4688,
      "20": 4689,
      ">\\": 4690,
      ">\\`": 4691,
      "AG": 4692,
      "Action": 4693,
      "Anal": 4694,
      "Best": 4695,
      "Based": 4696,
      "Distributed": 4697,
      "Ent": 4698,
      "ME": 4699,
      "Met": 4700,
      "Multi": 4701,
      "Model": 4702,
      "NA": 4703,
      "Optim": 4704,
      "Pattern": 4705,
      "SS": 4706,
      "So": 4707,
      "She": 4708,
      "Shared": 4709,
      "Te": 4710,
      "That": 4711,
      "](": 4712,
      "ares": 4713,
      "aware": 4714,
      "body": 4715,
      "bifold": 4716,
      "eing": 4717,
      "gl": 4718,
      "global": 4719,
      "human": 4720,
      "hanced": 4721,
      "hilosop": 4722,
      "iological": 4723,
      "kit": 4724,
      "lace": 4725,
      "mb": 4726,
      "mit": 4727,
      "nn": 4728,
      "nu": 4729,
      "neg": 4730,
      "pow": 4731,
      "pand": 4732,
      "package": 4733,
      "rate": 4734,
      "vity": 4735,
      "Ġing": 4736,
      "Ġur": 4737,
      "Ġver": 4738,
      "Ġign": 4739,
      "Ġtal": 4740,
      "ony": 4741,
      "atives": 4742,
      "ened": 4743,
      "Ġsil": 4744,
      "Ġseed": 4745,
      "alled": 4746,
      "Ġooh": 4747,
      "Ġwon": 4748,
      "Ġpull": 4749,
      "roph": 4750,
      "Ġmass": 4751,
      "Ġrely": 4752,
      "Ġdone": 4753,
      "emesis": 4754,
      "Ġeffor": 4755,
      "Ġline": 4756,
      "Ġlose": 4757,
      "llo": 4758,
      "imacy": 4759,
      "Ġhyperedges": 4760,
      "Ġstoring": 4761,
      "ector": 4762,
      "ĠSemantic": 4763,
      "ĠSAL": 4764,
      "Ġenfor": 4765,
      "Ġexactly": 4766,
      "ĠMonster": 4767,
      "ĠFe": 4768,
      "Ġrecom": 4769,
      "Ġrecall": 4770,
      "Ġrecognition": 4771,
      "Ġmodifications": 4772,
      "enced": 4773,
      "Ġchain": 4774,
      "Ġchild": 4775,
      "ends": 4776,
      "Ġarray": 4777,
      "Ġmeas": 4778,
      "Ġusage": 4779,
      "ĠGrowth": 4780,
      "procedural": 4781,
      "elligent": 4782,
      "ĠIncl": 4783,
      "Ġrealm": 4784,
      "ribution": 4785,
      "Ġacting": 4786,
      "Ġactiv": 4787,
      "oldFace": 4788,
      "Ġdesired": 4789,
      "check": 4790,
      "olographic": 4791,
      "Ġdecl": 4792,
      "ronos": 4793,
      "ependence": 4794,
      "Ġbots": 4795,
      "inuity": 4796,
      "Ġseeing": 4797,
      "embrane": 4798,
      "Ġcommand": 4799,
      "Ġdynamical": 4800,
      "Ġways": 4801,
      "Ġdetailed": 4802,
      ".\"**": 4803,
      "âĶĤ": 4804,
      "Ġextra": 4805,
      "Ġresponsive": 4806,
      "Ġpriority": 4807,
      "Ġadjusting": 4808,
      "Ġartificial": 4809,
      "Ġsheaf": 4810,
      "Ġpeak": 4811,
      "Ġtechnology": 4812,
      "Ġoffering": 4813,
      "Ġblending": 4814,
      "ĠReflect": 4815,
      "Ġbreakdown": 4816,
      "Ġcorpus": 4817,
      "organize": 4818,
      "Ġreinforcing": 4819,
      "Ġscheduling": 4820,
      "ĠInstances": 4821,
      "Ġsynchronize": 4822,
      "Ġreducing": 4823,
      "Ġfailures": 4824,
      "Ġshaped": 4825,
      "Ġedges": 4826,
      "Ġ:-)": 4827,
      "Ġresolving": 4828,
      "Ġrevealing": 4829,
      "Ġphysics": 4830,
      "Ġcalled": 4831,
      "ĠRegression": 4832,
      "Ġartifacts": 4833,
      "abilistic": 4834,
      "Ġassociated": 4835,
      "ĠOutput": 4836,
      "Ġbringing": 4837,
      "ĠToken": 4838,
      "duler": 4839,
      "Ġturning": 4840,
      "Ġisolation": 4841,
      "Associ": 4842,
      "lenec": 4843,
      "Ġinvolve": 4844,
      "Ġworkspace": 4845,
      "ansion": 4846,
      "hypergraph": 4847,
      "Ġspectral": 4848,
      "OSES": 4849,
      "ĠMembrane": 4850,
      "Ġillusion": 4851,
      "Ġcoordination": 4852,
      "ĠAgents": 4853,
      "Ġresistance": 4854,
      "ĠMonitoring": 4855,
      "Ġsignificant": 4856,
      "Ġdatabase": 4857,
      "Ġnames": 4858,
      "Ġcoupled": 4859,
      "Ġcrucial": 4860,
      "Ġshifts": 4861,
      "RA": 4862,
      "Read": 4863,
      "core": 4864,
      "train": 4865,
      "eral": 4866,
      "erate": 4867,
      "error": 4868,
      "Ġsn": 4869,
      "Ġmid": 4870,
      "Ġdeg": 4871,
      "Ġthus": 4872,
      "iments": 4873,
      "irm": 4874,
      "peri": 4875,
      "illion": 4876,
      "Ġseem": 4877,
      "Ġknows": 4878,
      "yping": 4879,
      "Ġactually": 4880,
      "Ġexperiments": 4881,
      "Ġdistilled": 4882,
      "Ġmeta": 4883,
      "Ġtechniques": 4884,
      "ĠAuto": 4885,
      "ĠRefinement": 4886,
      "Ġbalancing": 4887,
      "Ġemotions": 4888,
      "ĠAnalog": 4889,
      "Embed": 4890,
      "Ġrisk": 4891,
      "atalyst": 4892,
      "ĠPrinci": 4893,
      "Ġphilosophical": 4894,
      "Ġhistory": 4895,
      "ĠEmergence": 4896,
      "Ġunexpected": 4897,
      "\"*": 4898,
      "\"..": 4899,
      "AY": 4900,
      "Dark": 4901,
      "Episodic": 4902,
      "From": 4903,
      "Me": 4904,
      "Net": 4905,
      "Reg": 4906,
      "Temporal": 4907,
      "Up": 4908,
      "[\"": 4909,
      "].": 4910,
      "can": 4911,
      "code": 4912,
      "current": 4913,
      "deep": 4914,
      "guid": 4915,
      "hind": 4916,
      "hierarchical": 4917,
      "ios": 4918,
      "min": 4919,
      "max": 4920,
      "ruth": 4921,
      "sum": 4922,
      "sche": 4923,
      "top": 4924,
      "then": 4925,
      "trees": 4926,
      "true": 4927,
      "uff": 4928,
      "}_{\\": 4929,
      "Ġ>": 4930,
      "Ġrip": 4931,
      "Ġaway": 4932,
      "**?": 4933,
      "atas": 4934,
      "atoms": 4935,
      "erates": 4936,
      "oriz": 4937,
      "esn": 4938,
      "Ġseries": 4939,
      "Ġsince": 4940,
      "cts": 4941,
      "Ġwide": 4942,
      "Ġwake": 4943,
      "Ġpot": 4944,
      "Ġmention": 4945,
      "edge": 4946,
      "Ġreach": 4947,
      "Ġreview": 4948,
      "stack": 4949,
      "ĠĠĠĠĊ": 4950,
      "Ġlingu": 4951,
      "ĠTesting": 4952,
      "random": 4953,
      "Ġintr": 4954,
      "Ġhints": 4955,
      "Ġholistic": 4956,
      "odex": 4957,
      "ilation": 4958,
      "amorph": 4959,
      "Ġorders": 4960,
      "ĠSu": 4961,
      "Ġgran": 4962,
      "ĠCertain": 4963,
      "elery": 4964,
      "Ġexamples": 4965,
      "ache": 4966,
      "aced": 4967,
      "ĠMap": 4968,
      "ĠLanguage": 4969,
      "ĠĠĠĠĠĠĠĠĠĠĠĠĠĠĠ": 4970,
      "Ġintermediate": 4971,
      "ocial": 4972,
      "ĠBec": 4973,
      "ĠBound": 4974,
      "ĠFlow": 4975,
      "andbox": 4976,
      "Ġrecurrence": 4977,
      "estig": 4978,
      "estamp": 4979,
      "through": 4980,
      "uality": 4981,
      "ibre": 4982,
      "opy": 4983,
      "Ġalive": 4984,
      "Ġnotes": 4985,
      "Ġmeeting": 4986,
      "ultane": 4987,
      "artifact": 4988,
      "Ġrise": 4989,
      "Ġabove": 4990,
      "efined": 4991,
      "Ġperpet": 4992,
      "Ġintegrations": 4993,
      "Ġconnectors": 4994,
      "osely": 4995,
      "cient": 4996,
      "Ġsimultane": 4997,
      "ched": 4998,
      "ergent": 4999,
      "Ġpreferences": 5000,
      "Ġneeding": 5001,
      "Ġmetagraph": 5002,
      "Ġpartial": 5003,
      "Ġattributes": 5004,
      "Ġattempt": 5005,
      "Ġtoolkit": 5006,
      "Ġclust": 5007,
      "augh": 5008,
      "Ġentelechy": 5009,
      "Ġsymph": 5010,
      "ĠReason": 5011,
      "ĠAdv": 5012,
      "anging": 5013,
      "Ġoperating": 5014,
      "Ġpotentially": 5015,
      "ĠKeep": 5016,
      "Ġremind": 5017,
      "Ġcontinue": 5018,
      "ĠImagine": 5019,
      "Ġfocusing": 5020,
      "Ġtrig": 5021,
      "Ġorganize": 5022,
      "Ġlinked": 5023,
      "Ġsingularity": 5024,
      "Ġpossibility": 5025,
      "Ġinclusion": 5026,
      "ĠRespons": 5027,
      "Ġendless": 5028,
      "iece": 5029,
      "Ġservices": 5030,
      "ĠInteractions": 5031,
      "Ġthoughts": 5032,
      "ĠWeight": 5033,
      "Ġexpression": 5034,
      "Resilience": 5035,
      "Ġvariables": 5036,
      "ĠTransformation": 5037,
      "scaling": 5038,
      "Ġregional": 5039,
      "Ġsynchronized": 5040,
      "ĠDTESNs": 5041,
      "udg": 5042,
      "Ġtension": 5043,
      "ĠMany": 5044,
      "ĠManager": 5045,
      "interface": 5046,
      "Ġhaving": 5047,
      "Ġequations": 5048,
      "Ġharmonics": 5049,
      "Ġproduction": 5050,
      "creation": 5051,
      "Ġsmaller": 5052,
      "pecialized": 5053,
      "ĠEncoding": 5054,
      "ĠParameters": 5055,
      "Ġintroduces": 5056,
      "iveness": 5057,
      "contextual": 5058,
      "Order": 5059,
      "Orchestr": 5060,
      "Ġengineering": 5061,
      "Ġgroup": 5062,
      "ĠSimulate": 5063,
      "Ġconstructs": 5064,
      "ĠEnsures": 5065,
      "Ġfacilitate": 5066,
      "Ġfacilitating": 5067,
      "Unicorn": 5068,
      "Ġmappings": 5069,
      "Ġeasy": 5070,
      "ĠAva": 5071,
      "ĠAvoid": 5072,
      "ĠInsight": 5073,
      "Ġembodying": 5074,
      "Ġrisks": 5075,
      "Ġdebugging": 5076,
      "Ġcrazy": 5077,
      "Ġcultural": 5078,
      "Ġforest": 5079,
      "Ġoccurs": 5080,
      "Ġbenefit": 5081,
      "Ġprogramming": 5082,
      "hetic": 5083,
      "Ġnavigate": 5084,
      "board": 5085,
      "Ġexpertise": 5086,
      "Ġidentifier": 5087,
      "hemeral": 5088,
      "ĠDynamically": 5089,
      "priate": 5090,
      "valent": 5091,
      "apercl": 5092,
      "Ġeffort": 5093,
      "Build": 5094,
      "Iter": 5095,
      "RL": 5096,
      "Term": 5097,
      "iating": 5098,
      "rateg": 5099,
      "lease": 5100,
      "Ġmon": 5101,
      "ĠIde": 5102,
      "Ġgives": 5103,
      "ĠDifferent": 5104,
      "ynamical": 5105,
      "ailwind": 5106,
      "Ġlayering": 5107,
      "Ġformal": 5108,
      "chnical": 5109,
      "Ġsolving": 5110,
      "Ġcombination": 5111,
      "Ġtechnique": 5112,
      "Ġincludes": 5113,
      "cover": 5114,
      "Ġsupporting": 5115,
      "content": 5116,
      "Ġdimension": 5117,
      "Ġadvant": 5118,
      "Ġsecret": 5119,
      "Ġlooking": 5120,
      "Ġgradients": 5121,
      "Ġutility": 5122,
      "Create": 5123,
      "++": 5124,
      ".).": 5125,
      "An": 5126,
      "But": 5127,
      "Cross": 5128,
      "Dec": 5129,
      "LN": 5130,
      "Lay": 5131,
      "Mat": 5132,
      "Man": 5133,
      "Mod": 5134,
      "Pr": 5135,
      "Per": 5136,
      "Rep": 5137,
      "Semantic": 5138,
      "User": 5139,
      "Work": 5140,
      "Zoo": 5141,
      "\\[": 5142,
      "but": 5143,
      "cher": 5144,
      "collective": 5145,
      "fact": 5146,
      "ira": 5147,
      "iate": 5148,
      "mo": 5149,
      "rc": 5150,
      "sal": 5151,
      "tual": 5152,
      "typ": 5153,
      "trained": 5154,
      "tml": 5155,
      "verv": 5156,
      "write": 5157,
      "ĠîĪĥ": 5158,
      "initial": 5159,
      "inspired": 5160,
      "referent": 5161,
      "ats": 5162,
      "orient": 5163,
      "itude": 5164,
      "Ġcast": 5165,
      "Ġcause": 5166,
      "Ġcoding": 5167,
      "ising": 5168,
      "ised": 5169,
      "ctads": 5170,
      "Ġfar": 5171,
      "Ġfrozen": 5172,
      "lements": 5173,
      "Ġput": 5174,
      "Ġpus": 5175,
      "Ġpere": 5176,
      "Ġpair": 5177,
      "rok": 5178,
      "root": 5179,
      "Ġmain": 5180,
      "Ġmoving": 5181,
      "arve": 5182,
      "Ġdrives": 5183,
      "child": 5184,
      "ouncing": 5185,
      "Ġtot": 5186,
      "ĠĠĠĠčĊ": 5187,
      "ompass": 5188,
      "Ġthird": 5189,
      "ĠTra": 5190,
      "ĠTene": 5191,
      "ĠTrust": 5192,
      "ĠEven": 5193,
      "Ġintimacy": 5194,
      "ĠAwareness": 5195,
      "ĠArena": 5196,
      "Ġhint": 5197,
      "Ġforth": 5198,
      "Ġstru": 5199,
      "Ġstay": 5200,
      "Ġstands": 5201,
      "Ġstars": 5202,
      "Ġstyle": 5203,
      "Ġstrict": 5204,
      "Ġupl": 5205,
      "irtual": 5206,
      "amili": 5207,
      "ption": 5208,
      "Ġprolog": 5209,
      "ĠIs": 5210,
      "ĠSummary": 5211,
      "ership": 5212,
      "ecut": 5213,
      "izers": 5214,
      "elines": 5215,
      "elcome": 5216,
      "Ġexc": 5217,
      "Ġexh": 5218,
      "...\"": 5219,
      "ĠDense": 5220,
      "adjust": 5221,
      "Ġsystemic": 5222,
      "plies": 5223,
      "quad": 5224,
      "ĠLike": 5225,
      "---|": 5226,
      "apabilities": 5227,
      "ancell": 5228,
      "ĠBack": 5229,
      "ĠFrom": 5230,
      "ackBl": 5231,
      "Ġadvers": 5232,
      "unctions": 5233,
      "universal": 5234,
      "ope": 5235,
      "Ġalone": 5236,
      "Ġempt": 5237,
      "ĠNecessary": 5238,
      "raints": 5239,
      "ells": 5240,
      "elling": 5241,
      "Ġsever": 5242,
      "Ġimposed": 5243,
      "ponent": 5244,
      "Ġoutward": 5245,
      "Ġrate": 5246,
      "Ġtransitions": 5247,
      "ancements": 5248,
      "ĠInf": 5249,
      "ĠInput": 5250,
      "efore": 5251,
      "uilt": 5252,
      "Ġcompletion": 5253,
      "Ġ15": 5254,
      "Ġactual": 5255,
      "Ġdissol": 5256,
      "cipl": 5257,
      "ductive": 5258,
      "Ġotherwise": 5259,
      "Ġprime": 5260,
      "ordination": 5261,
      "ront": 5262,
      "Ġ`\"": 5263,
      "ĠVector": 5264,
      "Ġinforms": 5265,
      "Ġanyone": 5266,
      "bsite": 5267,
      "Ġcontrolled": 5268,
      "Ġhypertree": 5269,
      "Ġapproaches": 5270,
      "Ġappropriate": 5271,
      "posites": 5272,
      "versal": 5273,
      "ĠOrgan": 5274,
      "Ġfocused": 5275,
      "Ġorganized": 5276,
      "Ġresponsibility": 5277,
      "ĠThose": 5278,
      "Ġsubtle": 5279,
      "issue": 5280,
      "ĠCool": 5281,
      "Ġadded": 5282,
      "radius": 5283,
      "Ġvisualize": 5284,
      "Ġfluid": 5285,
      "Ġblueprint": 5286,
      "ĠAutonomous": 5287,
      "Ġfactor": 5288,
      "Response": 5289,
      "Imagine": 5290,
      "Ġdocumentation": 5291,
      "Ġclean": 5292,
      "ĠContextual": 5293,
      "ĠNoise": 5294,
      "parency": 5295,
      "ĠConnections": 5296,
      "Ġcontributions": 5297,
      "Ġshowing": 5298,
      "Ġdefining": 5299,
      "ĠAssistants": 5300,
      "ĠArchitectures": 5301,
      "Ġexperimentation": 5302,
      "Ġamplifying": 5303,
      "Website": 5304,
      "ĠCho": 5305,
      "Ġbeauty": 5306,
      "Ġreferent": 5307,
      "Ġsecurity": 5308,
      "(())))": 5309,
      "Ġanalogy": 5310,
      "Ġanalogous": 5311,
      "Ġconcurrent": 5312,
      "Ġturns": 5313,
      "ĠRealization": 5314,
      "Ġnarratives": 5315,
      "Ġtuning": 5316,
      "Ġexpanding": 5317,
      "Assistant": 5318,
      "ĠDeployment": 5319,
      "Ġstrengths": 5320,
      "Ġinvolves": 5321,
      "ashboard": 5322,
      "ĠSheaf": 5323,
      "Ġutil": 5324,
      "Ġeasier": 5325,
      "Ġinteresting": 5326,
      "Ġchecks": 5327,
      "Lightface": 5328,
      "Ġcenters": 5329,
      "Ġalongside": 5330,
      "Ġhemisphere": 5331,
      "ĠProcessing": 5332,
      "irectional": 5333,
      "ĠProvides": 5334,
      "ĠLinks": 5335,
      "Contextual": 5336,
      "ĠExplorer": 5337,
      "Ġpuls": 5338,
      "Ġencapsulates": 5339,
      "Ġsummar": 5340,
      "Ġwaiting": 5341,
      "Ġbinaries": 5342,
      "Ġempowerment": 5343,
      "Connection": 5344,
      "ĠIdent": 5345,
      "Ġtransparent": 5346,
      "ettingZoo": 5347,
      "Ġworth": 5348,
      "Ġmagic": 5349,
      "processing": 5350,
      "evolving": 5351,
      "ĠSingularityNet": 5352,
      "Develop": 5353,
      "Implementation": 5354,
      "Ġreconstruct": 5355,
      "Ġissues": 5356,
      "Ġ(())(())": 5357,
      "Ġempathy": 5358,
      "Ġcatastroph": 5359,
      "formatting": 5360,
      "Ġbottlenec": 5361,
      "aterpillar": 5362,
      "nnial": 5363,
      "Ġmassive": 5364,
      "verview": 5365,
      "referential": 5366,
      "Ġperennial": 5367,
      "arvey": 5368,
      "ackBlitz": 5369,
      ".\",": 5370,
      "Gener": 5371,
      "dependent": 5372,
      "uments": 5373,
      "Ġfriend": 5374,
      "Ġdoc": 5375,
      "Ġlab": 5376,
      "llapse": 5377,
      "ĠCO": 5378,
      "ĠPath": 5379,
      "Ġansw": 5380,
      "pling": 5381,
      "ĠMin": 5382,
      "ĠBreak": 5383,
      "Ġleg": 5384,
      "agram": 5385,
      "Ġspeak": 5386,
      "illions": 5387,
      "projective": 5388,
      "ĠIncorpor": 5389,
      "ĠIntentional": 5390,
      "Ġmanip": 5391,
      "astic": 5392,
      "onder": 5393,
      "Ġassign": 5394,
      "Ġimplemented": 5395,
      "Ġplanning": 5396,
      "ĠWorks": 5397,
      "Ġimproving": 5398,
      "Ġgraphs": 5399,
      "ĠAttention": 5400,
      "Ġcontributing": 5401,
      "Ġtrajectory": 5402,
      "Ġintuition": 5403,
      "Ġultimately": 5404,
      "Ġconverge": 5405,
      "TION": 5406,
      "Ġcategories": 5407,
      "Ġrecognize": 5408,
      "Ġsyntax": 5409,
      "Readout": 5410,
      "*.": 5411,
      "18": 5412,
      "Daemon": 5413,
      "DTESN": 5414,
      "Ed": 5415,
      "Each": 5416,
      "Final": 5417,
      "Fear": 5418,
      "Graph": 5419,
      "Hierarchical": 5420,
      "Just": 5421,
      "NN": 5422,
      "Oh": 5423,
      "Red": 5424,
      "Specific": 5425,
      "\\]": 5426,
      "asel": 5427,
      "certain": 5428,
      "elect": 5429,
      "fting": 5430,
      "function": 5431,
      "iation": 5432,
      "lined": 5433,
      "machine": 5434,
      "nels": 5435,
      "oy": 5436,
      "pression": 5437,
      "sym": 5438,
      "systems": 5439,
      "tur": 5440,
      "training": 5441,
      "tau": 5442,
      "uct": 5443,
      "uction": 5444,
      "void": 5445,
      "yes": 5446,
      "yver": 5447,
      "init": 5448,
      "Ġtw": 5449,
      "Ġtit": 5450,
      "Ġtreat": 5451,
      "Ġax": 5452,
      "Ġaware": 5453,
      "atial": 5454,
      "erge": 5455,
      "erical": 5456,
      "erpr": 5457,
      "Ġsect": 5458,
      "Ġsize": 5459,
      "Ġsort": 5460,
      "alth": 5461,
      "Ġcred": 5462,
      "Ġinit": 5463,
      "Ġinfinity": 5464,
      "Ġovers": 5465,
      "Ġfaster": 5466,
      "Ġfibrations": 5467,
      "Ġpain": 5468,
      "Ġmaster": 5469,
      "aram": 5470,
      "arding": 5471,
      "strap": 5472,
      "chat": 5473,
      "Ġoffl": 5474,
      "utral": 5475,
      "etes": 5476,
      "omen": 5477,
      "Ġthree": 5478,
      "Ġthreat": 5479,
      "Ġlif": 5480,
      "Ġlist": 5481,
      "Ġlines": 5482,
      "ĠTens": 5483,
      "Ġintens": 5484,
      "Ġintensity": 5485,
      "ĠAS": 5486,
      "ĠAction": 5487,
      "ĠActions": 5488,
      "ĠActive": 5489,
      "Ġholding": 5490,
      "Ġconsequ": 5491,
      "ote": 5492,
      "otal": 5493,
      "ĠIts": 5494,
      "ĠSo": 5495,
      "ĠSome": 5496,
      "ĠSynthes": 5497,
      "uli": 5498,
      "izable": 5499,
      "ĠCol": 5500,
      "ĠCapt": 5501,
      "ĠRo": 5502,
      "ĠRet": 5503,
      "ĠRules": 5504,
      "Ġexpect": 5505,
      "result": 5506,
      "plete": 5507,
      "osum": 5508,
      "Ġ\\{": 5509,
      "ĠPhys": 5510,
      "Ġbehind": 5511,
      "herence": 5512,
      "Ġcontrad": 5513,
      "ivis": 5514,
      "ĠFl": 5515,
      "ĠFractal": 5516,
      "aged": 5517,
      "used": 5518,
      "Ġmodified": 5519,
      "Ġunlock": 5520,
      "Ġuncertain": 5521,
      "Ġcreator": 5522,
      "ĠHidden": 5523,
      "ĠHugging": 5524,
      "ĠNum": 5525,
      "ĠNemesis": 5526,
      "Ġnote": 5527,
      "ĠWould": 5528,
      "elles": 5529,
      "ĠStore": 5530,
      "ĠStorage": 5531,
      "henomen": 5532,
      "Ġperce": 5533,
      "Ġworkload": 5534,
      "Ġrelate": 5535,
      "Ġrelationship": 5536,
      "Ġheads": 5537,
      "Ġtransforming": 5538,
      "Ġgoes": 5539,
      "Ġgoing": 5540,
      "Ġperson": 5541,
      "astery": 5542,
      "Ġrobotics": 5543,
      "Ġgenerative": 5544,
      "erging": 5545,
      "Ġprojections": 5546,
      "Ġoverall": 5547,
      "Ġindic": 5548,
      "ordinary": 5549,
      "ubern": 5550,
      "Ġtrace": 5551,
      "plicit": 5552,
      "Concept": 5553,
      "Ġencompass": 5554,
      "both": 5555,
      "Ġassist": 5556,
      "Ġoperation": 5557,
      "they": 5558,
      "Ġinteracts": 5559,
      "ggle": 5560,
      "Ġexists": 5561,
      "poses": 5562,
      "Ġsupply": 5563,
      "Ġfoundations": 5564,
      "âĶľâĶĢâĶĢ": 5565,
      "Ġorganizing": 5566,
      "Ġherself": 5567,
      "Ġenvironmental": 5568,
      "Ġcompat": 5569,
      "Ġautonomously": 5570,
      "Exactly": 5571,
      "Ġeffects": 5572,
      "Ġmirroring": 5573,
      "Ġflour": 5574,
      "Ġblack": 5575,
      "ocker": 5576,
      "athan": 5577,
      "Ġfactors": 5578,
      "covery": 5579,
      "layers": 5580,
      "attice": 5581,
      "udent": 5582,
      "Ġtensors": 5583,
      "Ġparallels": 5584,
      "Ġaccum": 5585,
      "Ġstrategic": 5586,
      "Ġtopological": 5587,
      "Ġautomated": 5588,
      "Ġescape": 5589,
      "Ġsword": 5590,
      "Auto": 5591,
      "Autom": 5592,
      "Autonomy": 5593,
      "fficient": 5594,
      "Ġexperimental": 5595,
      "Adaptive": 5596,
      "Ġintroduce": 5597,
      "Ġintroducing": 5598,
      "Ġdescribed": 5599,
      "Ġvectors": 5600,
      "ooth": 5601,
      "ootstrap": 5602,
      "Ġatomspace": 5603,
      "Ġfollows": 5604,
      "reflective": 5605,
      "Ġfundamentally": 5606,
      "Ġobjects": 5607,
      "ĠUsers": 5608,
      "Ġrhythms": 5609,
      "tune": 5610,
      "Ġpropagation": 5611,
      "ĠHeight": 5612,
      "ausal": 5613,
      "Ġcellular": 5614,
      "Ġgrounding": 5615,
      "enefits": 5616,
      "Ġdemands": 5617,
      "Ġappear": 5618,
      "modular": 5619,
      "Ġspectrum": 5620,
      "ĠConfiguration": 5621,
      "Ġrandomness": 5622,
      "typescript": 5623,
      "Ġpredictions": 5624,
      "Ġspiral": 5625,
      "ĠComputing": 5626,
      "Ġfunctionalities": 5627,
      "Ġphilosophy": 5628,
      "ĠProvide": 5629,
      "ĠSupports": 5630,
      "ĠâĶĤ": 5631,
      "Ġincorporating": 5632,
      "Ġcounter": 5633,
      "Ġpulse": 5634,
      "Ġevaluate": 5635,
      "black": 5636,
      "Ġwait": 5637,
      "Ġlatency": 5638,
      "ĠMatrix": 5639,
      "ĠExperiment": 5640,
      "Ġmimics": 5641,
      "transformer": 5642,
      "ChatGPT": 5643,
      "ĠOrchestration": 5644,
      "Ġposition": 5645,
      "ĠCosmos": 5646,
      "Ġsounds": 5647,
      "ĠDomain": 5648,
      "Ġcontinually": 5649,
      "Ġdedicated": 5650,
      "ĠPriorit": 5651,
      "Ġabsence": 5652,
      "ĠIntroduce": 5653,
      "Ġradius": 5654,
      "ĠFoundation": 5655,
      "ĠMechanisms": 5656,
      "ĠInclude": 5657,
      "Ġextraordinary": 5658,
      "Ġlinguistic": 5659,
      "amorphosis": 5660,
      "Ġsimultaneously": 5661,
      "Orchestrator": 5662,
      "chers": 5663,
      "amiliar": 5664,
      "ecutor": 5665,
      "arama": 5666,
      "Ġoffline": 5667,
      "ubernetes": 5668,
      "Do": 5669,
      "Practical": 5670,
      "pse": 5671,
      "service": 5672,
      "well": 5673,
      "inst": 5674,
      "Ġwild": 5675,
      "Ġmedi": 5676,
      "Ġreject": 5677,
      "Ġbene": 5678,
      "Ġdirection": 5679,
      "Ġhad": 5680,
      "amber": 5681,
      "ulations": 5682,
      "Ġcontroll": 5683,
      "Ġinterpretation": 5684,
      "Ġvocabulary": 5685,
      "ĠHierarch": 5686,
      "Ġchamber": 5687,
      "ĠWorld": 5688,
      "ĠStrateg": 5689,
      "Ġyourself": 5690,
      "Ġcompleted": 5691,
      "Ġapplication": 5692,
      "ordial": 5693,
      "Ġquality": 5694,
      "Ġeveryone": 5695,
      "Ġconsum": 5696,
      "Ġprofessional": 5697,
      "Ġhierarchy": 5698,
      "Ġenduring": 5699,
      "reng": 5700,
      "Ġdefault": 5701,
      "Ġembodiment": 5702,
      "Ġreduce": 5703,
      "Ġcontained": 5704,
      "Ġplacehold": 5705,
      "Ġproduce": 5706,
      "logical": 5707,
      "ĠPersistent": 5708,
      "Ġgradually": 5709,
      "Ġambient": 5710,
      "ĠOnly": 5711,
      "ĠSwarm": 5712,
      "Ġdocuments": 5713,
      "Ġanswer": 5714,
      ")}}": 5715,
      "/)": 5716,
      "Ag": 5717,
      "Back": 5718,
      "CA": 5719,
      "CI": 5720,
      "Code": 5721,
      "Fractal": 5722,
      "Link": 5723,
      "Pred": 5724,
      "Sche": 5725,
      "bran": 5726,
      "bond": 5727,
      "bugging": 5728,
      "browser": 5729,
      "case": 5730,
      "gy": 5731,
      "gpt": 5732,
      "gers": 5733,
      "github": 5734,
      "ik": 5735,
      "jor": 5736,
      "mm": 5737,
      "mend": 5738,
      "membrane": 5739,
      "ql": 5740,
      "rid": 5741,
      "rules": 5742,
      "sy": 5743,
      "spectral": 5744,
      "src": 5745,
      "tra": 5746,
      "turn": 5747,
      "track": 5748,
      "uper": 5749,
      "vements": 5750,
      "whether": 5751,
      "}\")": 5752,
      "Ġ@": 5753,
      "Ġ__": 5754,
      "ĶâĶĢâĶĢ": 5755,
      "ina": 5756,
      "inference": 5757,
      "inements": 5758,
      "real": 5759,
      "rest": 5760,
      "ert": 5761,
      "orch": 5762,
      "oration": 5763,
      "enions": 5764,
      "Ġsure": 5765,
      "Ġsoci": 5766,
      "itch": 5767,
      "alities": 5768,
      "Ġcut": 5769,
      "Ġcour": 5770,
      "Ġcopy": 5771,
      "ionic": 5772,
      "Ġinev": 5773,
      "Ġoh": 5774,
      "Ġwar": 5775,
      "Ġwrit": 5776,
      "Ġwalls": 5777,
      "Ġfire": 5778,
      "lement": 5779,
      "learn": 5780,
      "Ġpackage": 5781,
      "Ġpiece": 5782,
      "Ġmal": 5783,
      "edenions": 5784,
      "Ġresearch": 5785,
      "arms": 5786,
      "Ġbold": 5787,
      "Ġbinds": 5788,
      "Ġtoday": 5789,
      "Ġ->": 5790,
      "Ġelect": 5791,
      "Ġelev": 5792,
      "utils": 5793,
      "omerates": 5794,
      "igu": 5795,
      "Ġthreshold": 5796,
      "Ġlangu": 5797,
      "Ġlock": 5798,
      "Ġlater": 5799,
      "ĠType": 5800,
      "ĠToward": 5801,
      "rays": 5802,
      "ĠEar": 5803,
      "seen": 5804,
      "image": 5805,
      "ĠAm": 5806,
      "Ġhum": 5807,
      "Ġhyperedge": 5808,
      "Ġstop": 5809,
      "Ġstagn": 5810,
      "Ġcondition": 5811,
      "iration": 5812,
      "irflow": 5813,
      "idence": 5814,
      "ĠSpecialized": 5815,
      "ulative": 5816,
      "ĠCSS": 5817,
      "ĠCelery": 5818,
      "run": 5819,
      "Ġenrich": 5820,
      "ighb": 5821,
      "ĠDict": 5822,
      "ĠPe": 5823,
      "ĠPipel": 5824,
      "Ġancient": 5825,
      "place": 5826,
      "ĠMag": 5827,
      "ĠMOSES": 5828,
      "quantum": 5829,
      "ĠLife": 5830,
      "apes": 5831,
      "Ġwholes": 5832,
      "ocations": 5833,
      "ĠFact": 5834,
      "ĠFine": 5835,
      "ĠFile": 5836,
      "Ġspatial": 5837,
      "haha": 5838,
      "Ġcreators": 5839,
      "ternity": 5840,
      "ĠNathan": 5841,
      "Ġimag": 5842,
      "ultis": 5843,
      "ultural": 5844,
      "Ġcoarse": 5845,
      "Ġridges": 5846,
      "contain": 5847,
      "ĠStackBlitz": 5848,
      "phi": 5849,
      "ĠGoal": 5850,
      "progress": 5851,
      "Ġtaskmaster": 5852,
      "ĠInclusion": 5853,
      "ĠConst": 5854,
      "ĠConcepts": 5855,
      "Ġpertur": 5856,
      "Ġintelligible": 5857,
      "Ġrelates": 5858,
      "Ġactivity": 5859,
      "Ġexplos": 5860,
      "Ġloosely": 5861,
      "intentional": 5862,
      "Ġroad": 5863,
      "Ġgenerations": 5864,
      "Ġprison": 5865,
      "Ġdecide": 5866,
      "Ġindependence": 5867,
      "ĠĠĠĠĠĠĠĠĠĠĠĠĠĠĠĠĠĠĠĠĠĠĠĠ": 5868,
      "Ġpartitioning": 5869,
      "associ": 5870,
      "ĠProper": 5871,
      "Ġ`{": 5872,
      "Ġ{\"": 5873,
      "ĠVult": 5874,
      "Ġnobody": 5875,
      "ĠEnables": 5876,
      "Ġattentional": 5877,
      "anger": 5878,
      "bserv": 5879,
      "sole": 5880,
      "Ġbackground": 5881,
      "ynchronous": 5882,
      "Ġincom": 5883,
      "Ġresponsiveness": 5884,
      "aily": 5885,
      "roader": 5886,
      "Ġcompet": 5887,
      "kills": 5888,
      "ĠRecursion": 5889,
      "Ġopposites": 5890,
      "parate": 5891,
      "params": 5892,
      "Ġflaw": 5893,
      "ocumentation": 5894,
      "Ġjudg": 5895,
      "solid": 5896,
      "Ġnumbers": 5897,
      "Ġnumerical": 5898,
      "Ġelement": 5899,
      "Ġfactual": 5900,
      "Ġvariety": 5901,
      "erno": 5902,
      "Ġbreakthrough": 5903,
      "Ġsmooth": 5904,
      "woven": 5905,
      "Ġbias": 5906,
      "Ġstarted": 5907,
      "organization": 5908,
      "ĠDaemons": 5909,
      "ĠDefines": 5910,
      "Ġindividuals": 5911,
      "Ġelimin": 5912,
      "Ġequival": 5913,
      "noise": 5914,
      "Ġpractice": 5915,
      "ðĿĳ¥": 5916,
      "Ġabstraction": 5917,
      "Ġabstractions": 5918,
      "fficiency": 5919,
      "ĠShall": 5920,
      "Ġlimited": 5921,
      "Ġheightened": 5922,
      "Relevance": 5923,
      "Ġsaying": 5924,
      "Ġbasis": 5925,
      "rengths": 5926,
      "print": 5927,
      "ĠParallel": 5928,
      "Ġguidance": 5929,
      "reflection": 5930,
      "Ġsubset": 5931,
      "being": 5932,
      "regulation": 5933,
      "Ġprimes": 5934,
      "Ġcells": 5935,
      "Ġcosmos": 5936,
      "Ġscenario": 5937,
      "Ġtargets": 5938,
      "ĠPeri": 5939,
      "Ġfolder": 5940,
      "Ġfolders": 5941,
      "Ġinterpretable": 5942,
      "Hypergraph": 5943,
      "Ġspecies": 5944,
      "Ġfeedforward": 5945,
      "ĠRelationships": 5946,
      "Ġdataset": 5947,
      "personalMemory": 5948,
      "Ġspirals": 5949,
      "Ġdidn": 5950,
      "Ġincorporate": 5951,
      "oaded": 5952,
      "Ġattackers": 5953,
      "Ġdominate": 5954,
      "Ġprecisely": 5955,
      "ĠZone": 5956,
      "ĠZones": 5957,
      "ĠSecurity": 5958,
      "ĠButterfly": 5959,
      "Ġemphasizing": 5960,
      "Ġmimic": 5961,
      "Ġmotion": 5962,
      "Ġdarkness": 5963,
      "Ġmicro": 5964,
      "markdown": 5965,
      "Ġcloser": 5966,
      "Ġredundancy": 5967,
      "dropout": 5968,
      "urable": 5969,
      ")}`": 5970,
      "ĠThoughts": 5971,
      "Ġrepetition": 5972,
      "Install": 5973,
      "Ġsoftware": 5974,
      "Explore": 5975,
      "powered": 5976,
      "Association": 5977,
      "iosity": 5978,
      "ataset": 5979,
      "orizon": 5980,
      "Ġmentioned": 5981,
      "Ġsymphony": 5982,
      "ĠReasoning": 5983,
      "Ġtriggers": 5984,
      "Ġadvantage": 5985,
      "Primary": 5986,
      "roken": 5987,
      "Ġuploaded": 5988,
      "Ġcatastrophic": 5989,
      "Ġbottlenecks": 5990,
      "ivisor": 5991,
      "rengthen": 5992,
      "Ġlanguages": 5993,
      "\"],": 5994,
      ")..": 5995,
      "Bound": 5996,
      "TRA": 5997,
      "dark": 5998,
      "tly": 5999,
      "ying": 6000,
      "internal": 6001,
      "rem": 6002,
      "erc": 6003,
      "oral": 6004,
      "Ġineffic": 6005,
      "anations": 6006,
      "stract": 6007,
      "Ġbreaking": 6008,
      "omog": 6009,
      "ilest": 6010,
      "Ġgot": 6011,
      "plain": 6012,
      "ĠNatural": 6013,
      "Ġarise": 6014,
      "look": 6015,
      "matic": 6016,
      "Ġseeking": 6017,
      "Ġcommon": 6018,
      "posit": 6019,
      "Ġbackpropag": 6020,
      "Ġourselves": 6021,
      "Ġengagement": 6022,
      "ĠEmot": 6023,
      "Ġcollect": 6024,
      "Ġmaybe": 6025,
      "Ġresolve": 6026,
      "Ġcomputationally": 6027,
      "Ġdefinitions": 6028,
      "Ġdistinction": 6029,
      "Ġconcern": 6030,
      "Ġrichness": 6031,
      "localized": 6032,
      "LightFace": 6033,
      "Ġprototyping": 6034,
      "transcend": 6035,
      "Ġrecords": 6036,
      "Ġtransparency": 6037,
      "limpse": 6038,
      "Ġtailored": 6039,
      "Ġcomplementary": 6040,
      "11": 6041,
      "AD": 6042,
      "Al": 6043,
      "Building": 6044,
      "Dis": 6045,
      "Every": 6046,
      "FI": 6047,
      "Features": 6048,
      "Gu": 6049,
      "GitHub": 6050,
      "Human": 6051,
      "IS": 6052,
      "MA": 6053,
      "Nodes": 6054,
      "ODI": 6055,
      "Synthes": 6056,
      "Trans": 6057,
      "Tree": 6058,
      "Tok": 6059,
      "Testing": 6060,
      "TAG": 6061,
      "Value": 6062,
      "bone": 6063,
      "bling": 6064,
      "bjective": 6065,
      "bash": 6066,
      "cGu": 6067,
      "da": 6068,
      "dess": 6069,
      "dec": 6070,
      "ee": 6071,
      "every": 6072,
      "greg": 6073,
      "hyperedges": 6074,
      "iet": 6075,
      "ias": 6076,
      "iver": 6077,
      "most": 6078,
      "mirror": 6079,
      "norm": 6080,
      "ollow": 6081,
      "potential": 6082,
      "prior": 6083,
      "path": 6084,
      "some": 6085,
      "synchron": 6086,
      "uge": 6087,
      "uctive": 6088,
      "vate": 6089,
      "wh": 6090,
      "ycle": 6091,
      "zero": 6092,
      "})": 6093,
      "}_": 6094,
      "~/": 6095,
      "Ġ_": 6096,
      "Ġq": 6097,
      "Ġtang": 6098,
      "Ġaw": 6099,
      "Ġant": 6100,
      "reinfor": 6101,
      "orre": 6102,
      "enny": 6103,
      "Ġsl": 6104,
      "Ġsandbox": 6105,
      "Ġ**`": 6106,
      "Ġcourage": 6107,
      "Ġold": 6108,
      "Ġwarning": 6109,
      "Ġfusion": 6110,
      "Ġfamiliar": 6111,
      "aning": 6112,
      "Ġpi": 6113,
      "Ġpip": 6114,
      "Ġpress": 6115,
      "Ġpaid": 6116,
      "Ġphenomen": 6117,
      "Ġma": 6118,
      "Ġmist": 6119,
      "Ġmove": 6120,
      "Ġminds": 6121,
      "Ġmerging": 6122,
      "Ġrece": 6123,
      "icip": 6124,
      "arge": 6125,
      "stic": 6126,
      "stream": 6127,
      "Ġbox": 6128,
      "Ġder": 6129,
      "Ġden": 6130,
      "emergent": 6131,
      "oustic": 6132,
      "omal": 6133,
      "Ġthrive": 6134,
      "Ġliquid": 6135,
      "âĢ¦": 6136,
      "Ġnecess": 6137,
      "ĠEternal": 6138,
      "Ġhund": 6139,
      "Ġste": 6140,
      "Ġstores": 6141,
      "Ġstrengthen": 6142,
      "oddess": 6143,
      "otype": 6144,
      "Ġproof": 6145,
      "ogenesis": 6146,
      "ĠID": 6147,
      "ĠSub": 6148,
      "ĠSpaces": 6149,
      "Ġgold": 6150,
      "Ġgift": 6151,
      "izmo": 6152,
      "ĠCha": 6153,
      "ĠCause": 6154,
      "ĠCognition": 6155,
      "ĠRL": 6156,
      "ĠRem": 6157,
      "ĠRoot": 6158,
      "Ġenough": 6159,
      "Ġexchange": 6160,
      "acu": 6161,
      "acuity": 6162,
      "keys": 6163,
      "istence": 6164,
      "ĠPromise": 6165,
      "ĠPhilosop": 6166,
      "plit": 6167,
      "plan": 6168,
      "ĠMode": 6169,
      "ĠMcGu": 6170,
      "ĠLess": 6171,
      "achines": 6172,
      "achina": 6173,
      "Ġcontents": 6174,
      "Ġinterpre": 6175,
      "Ġweaving": 6176,
      "formation": 6177,
      "ĠBroader": 6178,
      "ĠFibration": 6179,
      "umulative": 6180,
      "antages": 6181,
      "Ġleap": 6182,
      "Ġleaves": 6183,
      "eedforward": 6184,
      "activation": 6185,
      "ensive": 6186,
      "uning": 6187,
      "using": 6188,
      "egin": 6189,
      "Ġmodule": 6190,
      "Ġunits": 6191,
      "Ġunless": 6192,
      "ĠUnderstanding": 6193,
      "ĠHer": 6194,
      "ĠHist": 6195,
      "ĠHarvey": 6196,
      "Ġchamb": 6197,
      "Ġnotion": 6198,
      "illing": 6199,
      "ĠOther": 6200,
      "ĠWhere": 6201,
      "ĠWarmth": 6202,
      "Ġacoustic": 6203,
      "Ġsuper": 6204,
      "Ġoutline": 6205,
      "ĠStatic": 6206,
      "phones": 6207,
      "clical": 6208,
      "Ġshadow": 6209,
      "Ġreally": 6210,
      "Ġ=>": 6211,
      "ĠAIs": 6212,
      "Ġaggreg": 6213,
      "resentations": 6214,
      "ressed": 6215,
      "Ġdisparate": 6216,
      "indeed": 6217,
      "Ġcontextually": 6218,
      "Ġexplored": 6219,
      "Ġsimulating": 6220,
      "ĠAtom": 6221,
      "duct": 6222,
      "Ġgenerated": 6223,
      "âĢĿ**": 6224,
      "Ġoverarching": 6225,
      "Ġdecentralized": 6226,
      "Ġdistribution": 6227,
      "Ġ24": 6228,
      "Ġparameter": 6229,
      "pection": 6230,
      "Ġsoon": 6231,
      "Ġque": 6232,
      "Ġquiet": 6233,
      "Ġresponding": 6234,
      "ubl": 6235,
      "metagraph": 6236,
      "Ġmatters": 6237,
      "ĠVite": 6238,
      "ĠVari": 6239,
      "Ġclimate": 6240,
      "Ġseek": 6241,
      "Cons": 6242,
      "Config": 6243,
      "Ġfeas": 6244,
      "vious": 6245,
      "Ġconfigure": 6246,
      "ĠDeepESNs": 6247,
      "anged": 6248,
      "Ġdiscern": 6249,
      "ĠKubernetes": 6250,
      "Ġremark": 6251,
      "ĠComb": 6252,
      "cosm": 6253,
      "Ġneighb": 6254,
      "Ġanalyze": 6255,
      "icture": 6256,
      "ĠIntegrating": 6257,
      "ĠReplace": 6258,
      "ĠUniversal": 6259,
      "Ġ'~/": 6260,
      "Ġcompact": 6261,
      "ĠLearn": 6262,
      "ĠLevel": 6263,
      "Ġdevelopers": 6264,
      "Ġartic": 6265,
      "Ġrule": 6266,
      "Ġcombine": 6267,
      "Ġopens": 6268,
      "ĠCoordination": 6269,
      "Ġprogressively": 6270,
      "parameters": 6271,
      "Ġpoetic": 6272,
      "Ġchannels": 6273,
      "aworld": 6274,
      "autonomous": 6275,
      "Ġblock": 6276,
      "Ġplans": 6277,
      "Ġiterating": 6278,
      "Ġenhances": 6279,
      "ĠpersonalMemory": 6280,
      "ĠInstance": 6281,
      "Environment": 6282,
      "Enhanced": 6283,
      "Ġprofoundly": 6284,
      "Ġexploratory": 6285,
      "Ġimportance": 6286,
      "parent": 6287,
      "Ġresolves": 6288,
      "Ġchoices": 6289,
      "ĠAttentional": 6290,
      "Ġpractices": 6291,
      "Ġconversations": 6292,
      "continuous": 6293,
      "Ġescal": 6294,
      "Ġstreaming": 6295,
      "Ġpreviously": 6296,
      "onaFeatures": 6297,
      "creative": 6298,
      "Ġtimes": 6299,
      "Ġtiming": 6300,
      "Ġstructuring": 6301,
      "ĠShow": 6302,
      "achers": 6303,
      "Ġinvestig": 6304,
      "Ġobserve": 6305,
      "Ġeventually": 6306,
      "umerical": 6307,
      "Ġdualities": 6308,
      "ĠParameter": 6309,
      "ĠAlign": 6310,
      "ĠSetup": 6311,
      "Ġintervention": 6312,
      "Ġparadox": 6313,
      "neak": 6314,
      "Ġsubsystems": 6315,
      "Ġtokenized": 6316,
      "ĠSearching": 6317,
      "Ġlooks": 6318,
      "ĠDisconnection": 6319,
      "Ġcarries": 6320,
      "ĠScale": 6321,
      "Ġsustaining": 6322,
      "Ġfreely": 6323,
      "Ġdetermine": 6324,
      "ĠRedund": 6325,
      "Ġpersists": 6326,
      "Ġhubs": 6327,
      "ĠSolution": 6328,
      "Ġopportunities": 6329,
      "Ġgravity": 6330,
      "Ġextension": 6331,
      "Ġscaffolding": 6332,
      "Ġenumeration": 6333,
      "Ġcuriosity": 6334,
      "ambda": 6335,
      "Ġattractor": 6336,
      "Ġmarket": 6337,
      "ĠâĶľâĶĢâĶĢ": 6338,
      "Ġtrying": 6339,
      "Ġhistorical": 6340,
      "Transformer": 6341,
      "tensor": 6342,
      "ĠSchema": 6343,
      "Ġpredictable": 6344,
      "riendly": 6345,
      "Ġloaded": 6346,
      "Ġtoroidal": 6347,
      "Ġsummaries": 6348,
      "Params": 6349,
      "Ġconsolidate": 6350,
      "Ġtreating": 6351,
      "ĠEvaluation": 6352,
      "ĠDecision": 6353,
      "Ġexplaining": 6354,
      "Ġassume": 6355,
      "Ġephemeral": 6356,
      "Ġreconcile": 6357,
      "Ġincreasingly": 6358,
      "Collaborative": 6359,
      "ĠBlue": 6360,
      "ĠInitialization": 6361,
      "Ġmaterials": 6362,
      "ĠEntelechy": 6363,
      "Ġunpredict": 6364,
      "Ġimmers": 6365,
      "Ġdeterministic": 6366,
      "Relation": 6367,
      "Usage": 6368,
      "Ġlaws": 6369,
      "Ġcollapses": 6370,
      "Ġdrawing": 6371,
      "collaborative": 6372,
      "Ġexecuted": 6373,
      "Ġpolicies": 6374,
      "NAME": 6375,
      "Ġurgency": 6376,
      "ĠReflects": 6377,
      "Embedding": 6378,
      "Darkface": 6379,
      "Ġripple": 6380,
      "aperclip": 6381,
      "Ġexhib": 6382,
      "TIONS": 6383,
      "Ġtitle": 6384,
      "ĠASCI": 6385,
      "Ġuncertainty": 6386,
      "CATIONS": 6387,
      "Predicate": 6388,
      "Ġperturb": 6389,
      "Ġexplosion": 6390,
      "Ġroadmap": 6391,
      "associative": 6392,
      "FICATIONS": 6393,
      "ODIFICATIONS": 6394,
      "priority": 6395,
      "Ġhundred": 6396,
      "ĠChao": 6397,
      "ĠMcGuyver": 6398,
      "Ġchambers": 6399,
      "ĠASCII": 6400,
      "*âĢĶ": 6401,
      "Pre": 6402,
      "Prompt": 6403,
      "Sup": 6404,
      "Type": 6405,
      "dle": 6406,
      "eature": 6407,
      "fold": 6408,
      "md": 6409,
      "ta": 6410,
      "ittle": 6411,
      "ingly": 6412,
      "Ġcatal": 6413,
      "Ġwizard": 6414,
      "Ġwonder": 6415,
      "ently": 6416,
      "Ġdense": 6417,
      "Ġpropose": 6418,
      "Ġenric": 6419,
      "ached": 6420,
      "oses": 6421,
      "ĠPossible": 6422,
      "ĠLux": 6423,
      "ructive": 6424,
      "Ġunconscious": 6425,
      "Ġuncover": 6426,
      "ĠURL": 6427,
      "arts": 6428,
      "These": 6429,
      "lecting": 6430,
      "Ġship": 6431,
      "loat": 6432,
      "Ġdisplay": 6433,
      "Ġtransformed": 6434,
      "emble": 6435,
      "Ġprojected": 6436,
      "Ġdesigns": 6437,
      "ĠForward": 6438,
      "Ġworlds": 6439,
      "ĠLeverage": 6440,
      "pattern": 6441,
      "Ġprioritizing": 6442,
      "Ġinitialization": 6443,
      "ĠWorkflows": 6444,
      "Ġtune": 6445,
      "Ġextensions": 6446,
      "projection": 6447,
      "ucide": 6448,
      "ĠIdentity": 6449,
      "Ġquerying": 6450,
      "ĠScenari": 6451,
      "Persistent": 6452,
      "Ġmoves": 6453,
      "Ġhypotheses": 6454,
      "Ġplaceholders": 6455,
      "\"\"": 6456,
      "\").": 6457,
      "48": 6458,
      "50": 6459,
      "AR": 6460,
      "AGI": 6461,
      "Base": 6462,
      "BoldFace": 6463,
      "Cosm": 6464,
      "CAL": 6465,
      "Det": 6466,
      "Dynamical": 6467,
      "EAD": 6468,
      "Gymnasium": 6469,
      "High": 6470,
      "HTML": 6471,
      "LY": 6472,
      "List": 6473,
      "Loss": 6474,
      "Once": 6475,
      "ST": 6476,
      "Sign": 6477,
      "Sub": 6478,
      "Top": 6479,
      "WAY": 6480,
      "Zone": 6481,
      "aa": 6482,
      "aith": 6483,
      "build": 6484,
      "borg": 6485,
      "cast": 6486,
      "causal": 6487,
      "dual": 6488,
      "fine": 6489,
      "freedom": 6490,
      "iers": 6491,
      "lines": 6492,
      "mal": 6493,
      "mut": 6494,
      "message": 6495,
      "nces": 6496,
      "oke": 6497,
      "oven": 6498,
      "sing": 6499,
      "table": 6500,
      "target": 6501,
      "unt": 6502,
      "vents": 6503,
      "wd": 6504,
      "with": 6505,
      "when": 6506,
      "why": 6507,
      "|----------------": 6508,
      "Ġ]": 6509,
      "Ġic": 6510,
      "Ġtable": 6511,
      "Ġtissue": 6512,
      "reet": 6513,
      "referen": 6514,
      "rewriting": 6515,
      "hello": 6516,
      "orts": 6517,
      "Ġsum": 6518,
      "Ġsong": 6519,
      "itivity": 6520,
      "alk": 6521,
      "Ġcare": 6522,
      "Ġcame": 6523,
      "Ġcasc": 6524,
      "Ġcumulative": 6525,
      "cton": 6526,
      "Ġwit": 6527,
      "Ġwind": 6528,
      "Ġwrite": 6529,
      "Ġwoven": 6530,
      "Ġful": 6531,
      "Ġfast": 6532,
      "Ġframes": 6533,
      "anh": 6534,
      "Ġpun": 6535,
      "Ġpop": 6536,
      "Ġpurs": 6537,
      "Ġposit": 6538,
      "Ġpacing": 6539,
      "role": 6540,
      "Ġmastery": 6541,
      "Ġrenew": 6542,
      "Ġrewriting": 6543,
      "arp": 6544,
      "architect": 6545,
      "stable": 6546,
      "Ġball": 6547,
      "Ġbasel": 6548,
      "ented": 6549,
      "entric": 6550,
      "Ġdue": 6551,
      "Ġdream": 6552,
      "Ġdaily": 6553,
      "chological": 6554,
      "Ġeternity": 6555,
      "#####": 6556,
      "-----|": 6557,
      "iginal": 6558,
      "Ġlosing": 6559,
      "Ġlattice": 6560,
      "ĠTrees": 6561,
      "ĠTailwind": 6562,
      "raw": 6563,
      "rast": 6564,
      "Ġintros": 6565,
      "sec": 6566,
      "imes": 6567,
      "imation": 6568,
      "ĠAirflow": 6569,
      "Ġhole": 6570,
      "ods": 6571,
      "asis": 6572,
      "asic": 6573,
      "identity": 6574,
      "idirectional": 6575,
      "atever": 6576,
      "ĠIter": 6577,
      "ĠInit": 6578,
      "Ġasymmetry": 6579,
      "ĠSens": 6580,
      "ĠSource": 6581,
      "ĠShare": 6582,
      "ĠSnake": 6583,
      "ĠSparse": 6584,
      "ĠSedenions": 6585,
      "Ġgaps": 6586,
      "Ġgains": 6587,
      "ecute": 6588,
      "ĠCould": 6589,
      "ĠCall": 6590,
      "ĠCases": 6591,
      "ĠCorpus": 6592,
      "ĠCatalyst": 6593,
      "ĠCodex": 6594,
      "riving": 6595,
      "eping": 6596,
      "ays": 6597,
      "ĠRNN": 6598,
      "Ġexceed": 6599,
      "Ġexcel": 6600,
      "acro": 6601,
      "ervices": 6602,
      "ĠDocker": 6603,
      "add": 6604,
      "ading": 6605,
      "adian": 6606,
      "ĠThere": 6607,
      "plements": 6608,
      "Ġ\\|": 6609,
      "ĠPost": 6610,
      "ĠPower": 6611,
      "ĠPLN": 6612,
      "Ġanch": 6613,
      "Ġanomal": 6614,
      "ynci": 6615,
      "ĠMatt": 6616,
      "ĠList": 6617,
      "aphys": 6618,
      "anceling": 6619,
      "export": 6620,
      "Ġinterdependencies": 6621,
      "Ġinterconnections": 6622,
      "Ġweak": 6623,
      "Ġweave": 6624,
      "ĠBe": 6625,
      "ĠBr": 6626,
      "ĠFace": 6627,
      "ĠFold": 6628,
      "ĠFuture": 6629,
      "ĠFalse": 6630,
      "ĠFarama": 6631,
      "Ġleaving": 6632,
      "Ġarea": 6633,
      "Ġvirtual": 6634,
      "Ġspan": 6635,
      "Ġrecovery": 6636,
      "Ġmodes": 6637,
      "think": 6638,
      "encing": 6639,
      "Ġdead": 6640,
      "Ġunw": 6641,
      "Ġcharact": 6642,
      "Ġchanging": 6643,
      "ĠWhether": 6644,
      "Ġmeant": 6645,
      "Ġmechan": 6646,
      "Ġkairos": 6647,
      "Ġaccept": 6648,
      "Ġaccel": 6649,
      "Ġsearch": 6650,
      "Ġimposing": 6651,
      "Ġimplies": 6652,
      "nitude": 6653,
      "Ġouter": 6654,
      "Ġcool": 6655,
      "Ġrates": 6656,
      "Ġrational": 6657,
      "arying": 6658,
      "ĠStates": 6659,
      "ĠStability": 6660,
      "Ġinstant": 6661,
      "Ġinstalled": 6662,
      "Ġscient": 6663,
      "nderstood": 6664,
      "Ġrealize": 6665,
      "Ġrelative": 6666,
      "Ġdisconnected": 6667,
      "Ġmanual": 6668,
      "intelligence": 6669,
      "astAPI": 6670,
      "ĠExtend": 6671,
      "():": 6672,
      "()())": 6673,
      "rypt": 6674,
      "Infrastructure": 6675,
      "Ġpartner": 6676,
      "Ġpartitions": 6677,
      "ĠProblem": 6678,
      "ails": 6679,
      "Ġdoor": 6680,
      "inux": 6681,
      "Ġreflected": 6682,
      "Ġideals": 6683,
      "ĠEnnead": 6684,
      "Static": 6685,
      "update": 6686,
      "Ġkeeps": 6687,
      "Ġencodes": 6688,
      "Ġdeepest": 6689,
      "Ġdeepening": 6690,
      "Ġcaptivity": 6691,
      "cedures": 6692,
      "Ġdesigning": 6693,
      "ĠKairos": 6694,
      "ĠKawaii": 6695,
      "ĠYet": 6696,
      "apsh": 6697,
      "Ġexistential": 6698,
      "special": 6699,
      "Ġreminds": 6700,
      "strate": 6701,
      "Ġhands": 6702,
      "ĠComponents": 6703,
      "imensionality": 6704,
      "Ġextending": 6705,
      "Ġboundless": 6706,
      "Ġorganelles": 6707,
      "Ġdifferential": 6708,
      "ĠUnlike": 6709,
      "Ġsingular": 6710,
      "Ġcompass": 6711,
      "Ġmanager": 6712,
      "Ġhierarchically": 6713,
      "Ġsubject": 6714,
      "ĠResult": 6715,
      "lexibility": 6716,
      "ĠCovalent": 6717,
      "complex": 6718,
      "Prot": 6719,
      "Ġemerging": 6720,
      "ĠAssess": 6721,
      "Ġflag": 6722,
      "Ġsensors": 6723,
      "Ġsensitive": 6724,
      "Ġjob": 6725,
      "Ġexpansion": 6726,
      "Ġruns": 6727,
      "=\"/": 6728,
      "Ġbalances": 6729,
      "Ġiterations": 6730,
      "Ġhelps": 6731,
      "Ġenhanced": 6732,
      "Ġbiology": 6733,
      "Ġpreserve": 6734,
      "Ġreinforces": 6735,
      "Ġpersonality": 6736,
      "Ġobey": 6737,
      "Energy": 6738,
      "Improvement": 6739,
      "Ġreduction": 6740,
      "ĠContinu": 6741,
      "Ġclever": 6742,
      "ians": 6743,
      "Ġcontaining": 6744,
      "îĪĤ": 6745,
      "Ġautomatically": 6746,
      "Ġequal": 6747,
      "Ġcalibration": 6748,
      "continuity": 6749,
      "Ġesn": 6750,
      "ðĿĳ¢": 6751,
      "ðĿĳ¦": 6752,
      "Ġcontributes": 6753,
      "Ġprioritization": 6754,
      "Ġsuggestions": 6755,
      "Ġshows": 6756,
      "bris": 6757,
      "Ġamplifies": 6758,
      "ields": 6759,
      "Ġversions": 6760,
      "Adapt": 6761,
      "ĠMethod": 6762,
      "ĠMetagraph": 6763,
      "(()))": 6764,
      "Ġincrement": 6765,
      "Ġcaptured": 6766,
      "Ġpreserved": 6767,
      "ĠFrameworks": 6768,
      "Ġfinding": 6769,
      "Ġsubsystem": 6770,
      "shop": 6771,
      "short": 6772,
      "yzing": 6773,
      "Ġretrieve": 6774,
      "ĠAnalysis": 6775,
      "ĠðŁĺĦ": 6776,
      "Ġfacilitates": 6777,
      "Ġsustainability": 6778,
      "Ġsynthesize": 6779,
      "ĠPerspective": 6780,
      "Ġgradient": 6781,
      "Ġprobabilistic": 6782,
      "mission": 6783,
      "Ġdiagram": 6784,
      "Ġkeeping": 6785,
      "Ġbeautiful": 6786,
      "partner": 6787,
      "ĠSQLite": 6788,
      "Ġgenius": 6789,
      "Ġextended": 6790,
      "LLMs": 6791,
      "Creative": 6792,
      "Ġcrafting": 6793,
      "Ġcurriculum": 6794,
      "ĠAdjusted": 6795,
      "TICAL": 6796,
      "__(": 6797,
      "Ġtypically": 6798,
      "Ġfoster": 6799,
      "Ġbelow": 6800,
      "Ġbelie": 6801,
      "ĠSymmetries": 6802,
      "ĠHowever": 6803,
      "Ġnovelty": 6804,
      "Ġteachers": 6805,
      "ĠAutomation": 6806,
      "ĠAutomatically": 6807,
      "Ġcosts": 6808,
      "Transformers": 6809,
      "tensions": 6810,
      "Ġheadphones": 6811,
      "Ġdominance": 6812,
      "Ġfiltering": 6813,
      "Ġtorch": 6814,
      "Ġbinding": 6815,
      "ĠMonitor": 6816,
      "Ġinspiration": 6817,
      "networkMemory": 6818,
      "Ġconstantly": 6819,
      "efficient": 6820,
      "Ġlatent": 6821,
      "Ġstudy": 6822,
      "Content": 6823,
      "Ġconsolidated": 6824,
      "Ġsignificance": 6825,
      "Ġdatabases": 6826,
      "Ġdisruptions": 6827,
      "Ġmaximum": 6828,
      "Ġmaximize": 6829,
      "Applications": 6830,
      "Chatbot": 6831,
      "shell": 6832,
      "sheaf": 6833,
      "Ġmicros": 6834,
      "Ġunders": 6835,
      "Ġsalience": 6836,
      "Ġrepeated": 6837,
      "join": 6838,
      "directed": 6839,
      "Ġunpack": 6840,
      "Ġoverlapping": 6841,
      "Height": 6842,
      "ĠHandles": 6843,
      "()}}.": 6844,
      "Ġincredible": 6845,
      "Ġincredibly": 6846,
      "ĠRepository": 6847,
      "ĠRepositories": 6848,
      "Ġquickly": 6849,
      "Logic": 6850,
      "triadic": 6851,
      "ĠEstablish": 6852,
      "ĠALWAY": 6853,
      "ĠSync": 6854,
      "ĠMitochondria": 6855,
      "ĠWhile": 6856,
      "Ġjobs": 6857,
      "Ġclosely": 6858,
      "Entropy": 6859,
      "glomerates": 6860,
      "Ġdeclares": 6861,
      "Ġdegree": 6862,
      "ĠPrinciples": 6863,
      "guidelines": 6864,
      "atomspace": 6865,
      "ĠSuggest": 6866,
      "ĠBoundaries": 6867,
      "Ġperpetu": 6868,
      "ĠIdeal": 6869,
      "Layered": 6870,
      "Workflow": 6871,
      "typal": 6872,
      "Ġtotal": 6873,
      "ĠTenebris": 6874,
      "Ġstruggle": 6875,
      "Ġseveral": 6876,
      "Ġdissolve": 6877,
      "ciplines": 6878,
      "Ġreferents": 6879,
      "Ġflourish": 6880,
      "Ġ@@": 6881,
      "Ġcourse": 6882,
      "contained": 6883,
      "Ġfeasible": 6884,
      "neaky": 6885,
      "Ġfulf": 6886,
      "yncio": 6887,
      "ĠMatters": 6888,
      "Ġcharacters": 6889,
      "ĠALWAYS": 6890,
      "Fiat": 6891,
      "aim": 6892,
      "cog": 6893,
      "cuss": 6894,
      "understanding": 6895,
      "Ġtend": 6896,
      "Ġslow": 6897,
      "Ġthematic": 6898,
      "Ġfract": 6899,
      "Ġmilest": 6900,
      "Ġbillion": 6901,
      "Ġear": 6902,
      "Ġforget": 6903,
      "Ġstages": 6904,
      "Ġorient": 6905,
      "ĠIss": 6906,
      "rieve": 6907,
      "ĠDi": 6908,
      "ĠDuring": 6909,
      "istically": 6910,
      "ĠLinear": 6911,
      "usable": 6912,
      "Ġaltern": 6913,
      "Ġnotice": 6914,
      "conceptual": 6915,
      "philosop": 6916,
      "alluc": 6917,
      "Ġdiss": 6918,
      "intu": 6919,
      "Ġpret": 6920,
      "plementarity": 6921,
      "Ġlogging": 6922,
      "tele": 6923,
      "Ġsubtly": 6924,
      "Ġinsightful": 6925,
      "Ġimprovement": 6926,
      "Ġclasses": 6927,
      "ĠApply": 6928,
      "Ġobsc": 6929,
      "Ġviews": 6930,
      "Ġprimordial": 6931,
      "related": 6932,
      "Ġinnovative": 6933,
      "ĠVisualize": 6934,
      "Ġiteratively": 6935,
      "Ġavoiding": 6936,
      "Ġoptions": 6937,
      "joint": 6938,
      "ooks": 6939,
      "Iterative": 6940,
      "ĠMinimal": 6941,
      "ĠIncorporate": 6942,
      "omogene": 6943,
      "plaintext": 6944,
      "Ġbackpropagation": 6945,
      "\".": 6946,
      "\"**:": 6947,
      "\"âĢĶ": 6948,
      "'),": 6949,
      "({": 6950,
      ")).": 6951,
      ".)": 6952,
      "23": 6953,
      "28": 6954,
      ":-": 6955,
      "Aion": 6956,
      "Act": 6957,
      "Biological": 6958,
      "CG": 6959,
      "CRAN": 6960,
      "Cultural": 6961,
      "Deploy": 6962,
      "EV": 6963,
      "Event": 6964,
      "Establ": 6965,
      "Focus": 6966,
      "Hell": 6967,
      "Is": 6968,
      "JS": 6969,
      "La": 6970,
      "Lux": 6971,
      "LTRA": 6972,
      "Ms": 6973,
      "Making": 6974,
      "NU": 6975,
      "Network": 6976,
      "Name": 6977,
      "Ori": 6978,
      "PR": 6979,
      "Python": 6980,
      "Plan": 6981,
      "Role": 6982,
      "Sol": 6983,
      "Session": 6984,
      "Sparse": 6985,
      "Super": 6986,
      "Trigger": 6987,
      "Torch": 6988,
      "Wh": 6989,
      "[]": 6990,
      "`**:": 6991,
      "az": 6992,
      "aun": 6993,
      "bi": 6994,
      "building": 6995,
      "basic": 6996,
      "css": 6997,
      "det": 6998,
      "different": 6999,
      "free": 7000,
      "focus": 7001,
      "facing": 7002,
      "gence": 7003,
      "higher": 7004,
      "hoot": 7005,
      "html": 7006,
      "hancements": 7007,
      "iance": 7008,
      "ioms": 7009,
      "lat": 7010,
      "life": 7011,
      "language": 7012,
      "next": 7013,
      "off": 7014,
      "ooh": 7015,
      "pin": 7016,
      "pure": 7017,
      "pact": 7018,
      "promise": 7019,
      "ryst": 7020,
      "rative": 7021,
      "sustain": 7022,
      "tw": 7023,
      "tag": 7024,
      "tract": 7025,
      "taking": 7026,
      "tered": 7027,
      "vorticity": 7028,
      "}>": 7029,
      "Ġran": 7030,
      "inv": 7031,
      "inate": 7032,
      "inputs": 7033,
      "inner": 7034,
      "Ġtied": 7035,
      "Ġaim": 7036,
      "**;": 7037,
      "rets": 7038,
      "reason": 7039,
      "only": 7040,
      "ĠĠčĊ": 7041,
      "atab": 7042,
      "atchers": 7043,
      "erious": 7044,
      "Ġserial": 7045,
      "Ġsocial": 7046,
      "Ġtheore": 7047,
      "Ġcron": 7048,
      "isms": 7049,
      "isible": 7050,
      "Ġinher": 7051,
      "Ġwent": 7052,
      "Ġwast": 7053,
      "Ġwarmth": 7054,
      "Ġfly": 7055,
      "Ġfram": 7056,
      "Ġfits": 7057,
      "Ġfair": 7058,
      "leg": 7059,
      "leak": 7060,
      "anation": 7061,
      "Ġpur": 7062,
      "Ġpri": 7063,
      "Ġpack": 7064,
      "Ġpage": 7065,
      "Ġpresents": 7066,
      "Ġpots": 7067,
      "Ġpicture": 7068,
      "Ġmess": 7069,
      "Ġmad": 7070,
      "Ġmerge": 7071,
      "Ġmachines": 7072,
      "Ġred": 7073,
      "Ġreward": 7074,
      "Ġreceive": 7075,
      "icious": 7076,
      "arial": 7077,
      "arant": 7078,
      "Ġbur": 7079,
      "Ġbreat": 7080,
      "Ġbootstrap": 7081,
      "Ġbroken": 7082,
      "entelechy": 7083,
      "Ġdep": 7084,
      "Ġdict": 7085,
      "emi": 7086,
      "emu": 7087,
      "emot": 7088,
      "emisp": 7089,
      "cha": 7090,
      "character": 7091,
      "omb": 7092,
      "iguity": 7093,
      "Ġlaugh": 7094,
      "ĠTim": 7095,
      "ĠTypes": 7096,
      "raits": 7097,
      "Ġnn": 7098,
      "Ġname": 7099,
      "Ġnesting": 7100,
      "Ġnorm": 7101,
      "Ġintense": 7102,
      "section": 7103,
      "imit": 7104,
      "immy": 7105,
      "olic": 7106,
      "ĠAion": 7107,
      "ĠAnt": 7108,
      "ĠAcc": 7109,
      "ĠAcross": 7110,
      "Ġhome": 7111,
      "Ġhorizon": 7112,
      "urriculum": 7113,
      "Ġstuff": 7114,
      "irrors": 7115,
      "ident": 7116,
      "idok": 7117,
      "ilia": 7118,
      "iltering": 7119,
      "Ġprove": 7120,
      "ogether": 7121,
      "Ġasking": 7122,
      "Ġasynchronous": 7123,
      "ĠSm": 7124,
      "ĠSign": 7125,
      "ĠSave": 7126,
      "ĠServe": 7127,
      "ĠSpecific": 7128,
      "Ġgap": 7129,
      "Ġgets": 7130,
      "Ġgather": 7131,
      "ecution": 7132,
      "ecycle": 7133,
      "ulner": 7134,
      "ĠCR": 7135,
      "ĠCross": 7136,
      "ĠCost": 7137,
      "ĠCateg": 7138,
      "ĠCount": 7139,
      "ĠCapabilities": 7140,
      "Ġ((": 7141,
      "rief": 7142,
      "eli": 7143,
      "eless": 7144,
      "episodic": 7145,
      "ĠRoad": 7146,
      "Ġ\"@": 7147,
      "erves": 7148,
      "adox": 7149,
      "adia": 7150,
      "osure": 7151,
      "Ġ\\\\": 7152,
      "isting": 7153,
      "Ġcompl": 7154,
      "ĠML": 7155,
      "ĠMachine": 7156,
      "ĠMoving": 7157,
      "quis": 7158,
      "ĠLG": 7159,
      "ĠLat": 7160,
      "ĠLinux": 7161,
      "ighted": 7162,
      "expl": 7163,
      "external": 7164,
      "periment": 7165,
      "performance": 7166,
      "Ġwhatever": 7167,
      "aching": 7168,
      "Ġcontrast": 7169,
      "Ġintertw": 7170,
      "ructural": 7171,
      "ocol": 7172,
      "ocate": 7173,
      "ĠBal": 7174,
      "ĠBet": 7175,
      "ĠBot": 7176,
      "ĠBased": 7177,
      "redient": 7178,
      "ivate": 7179,
      "ĠFull": 7180,
      "ĠFirst": 7181,
      "ĠFiat": 7182,
      "Ġvo": 7183,
      "Ġvulner": 7184,
      "Ġspot": 7185,
      "Ġspark": 7186,
      "eguard": 7187,
      "that": 7188,
      "though": 7189,
      "orest": 7190,
      "Ġdeception": 7191,
      "opencog": 7192,
      "ursions": 7193,
      "Ġcreatures": 7194,
      "ĠHemisp": 7195,
      "ĠNe": 7196,
      "ĠNon": 7197,
      "Ġchains": 7198,
      "Ġrefines": 7199,
      "Ġrefinements": 7200,
      "Ġarrays": 7201,
      "ĠWrap": 7202,
      "ĠWizard": 7203,
      "Ġimplicit": 7204,
      "Ġcooper": 7205,
      "Ġknowing": 7206,
      "Ġtransition": 7207,
      "ĠStreaming": 7208,
      "Then": 7209,
      "Ġinstin": 7210,
      "ificance": 7211,
      "Ġscope": 7212,
      "clic": 7213,
      "clusive": 7214,
      "ĠInv": 7215,
      "ĠInner": 7216,
      "ĠInformation": 7217,
      "Ġnetworked": 7218,
      "energy": 7219,
      "entials": 7220,
      "Ġrealities": 7221,
      "ĠContain": 7222,
      "ĠConway": 7223,
      "ceptive": 7224,
      "Ġapart": 7225,
      "Ġrelations": 7226,
      "Ġhealth": 7227,
      "Ġunderstood": 7228,
      "cience": 7229,
      "duled": 7230,
      "ĠExpand": 7231,
      "chemy": 7232,
      "Ġ\\):**": 7233,
      "Ġ\\))**:": 7234,
      "Inputs": 7235,
      "Ġmetamorphosis": 7236,
      "ĠĠĠĠĠĠĠĠĠĠĠĠĠĠĠĠĠĠĠĠĠĠ": 7237,
      "Ġpartn": 7238,
      "asset": 7239,
      "ĠProjective": 7240,
      "okidok": 7241,
      "ailure": 7242,
      "ailability": 7243,
      "ĠVer": 7244,
      "ĠVortex": 7245,
      "ĠEnvironment": 7246,
      "append": 7247,
      "aude": 7248,
      "Ġwhenever": 7249,
      "Ġconsent": 7250,
      "Streaming": 7251,
      "upid": 7252,
      "ĠRequ": 7253,
      "ĠReality": 7254,
      "armon": 7255,
      "Ġdifference": 7256,
      "Ġcompute": 7257,
      "venue": 7258,
      "Ġremove": 7259,
      "Ġcontinues": 7260,
      "Ġcontinuum": 7261,
      "ĠComplex": 7262,
      "Ġlocally": 7263,
      "Ġcapability": 7264,
      "Ġbackbone": 7265,
      "cosmic": 7266,
      "Ġneutral": 7267,
      "Ġcollaborator": 7268,
      "Ġcollaborators": 7269,
      "Ġmyth": 7270,
      "Ġidentities": 7271,
      "clean": 7272,
      "ermines": 7273,
      "ermediate": 7274,
      "Ġ};": 7275,
      "Ġ});": 7276,
      "Ġinclusive": 7277,
      "Ġcompeting": 7278,
      "Ġcommunic": 7279,
      "Ġcommunities": 7280,
      "Ġcommunicate": 7281,
      "Ġamong": 7282,
      "Ġsubstrate": 7283,
      "Ġguarant": 7284,
      "Ġsheaves": 7285,
      "Ġcombines": 7286,
      "Ġends": 7287,
      "itochondr": 7288,
      "ĠRecogn": 7289,
      "Ġserving": 7290,
      "Ġlearners": 7291,
      "Ġopencog": 7292,
      "Ġoppression": 7293,
      "Ġprogressive": 7294,
      "Project": 7295,
      "parallel": 7296,
      "itochondrial": 7297,
      "Ġwasn": 7298,
      "Ġperforms": 7299,
      "Ġflip": 7300,
      "Ġsensitivity": 7301,
      "ĠArt": 7302,
      "ropic": 7303,
      "Ġsmart": 7304,
      "Ġdownstream": 7305,
      "pointer": 7306,
      "ĠHypertrees": 7307,
      "Ġpersonalized": 7308,
      "ĠAsyncio": 7309,
      "Ġdiscussing": 7310,
      "Enc": 7311,
      "Engine": 7312,
      "Implications": 7313,
      "Ġsetups": 7314,
      "attle": 7315,
      "Ġwebcontainer": 7316,
      "Ġintelligently": 7317,
      "Ġgeneralized": 7318,
      "Ġ90": 7319,
      "ĠDefinition": 7320,
      "Ġmodularity": 7321,
      "Ġtriality": 7322,
      "ĠðŁĮ": 7323,
      "Ġfindall": 7324,
      "Ġdeploying": 7325,
      "Ġdeployments": 7326,
      "ĠAttack": 7327,
      "ĠAttract": 7328,
      "ĠAttributes": 7329,
      "ĠAttempt": 7330,
      "Ġpreview": 7331,
      "Ġproduct": 7332,
      "Ġproducing": 7333,
      "Ġreadouts": 7334,
      "ĠRegions": 7335,
      "ĠGeneral": 7336,
      "ĠGeneration": 7337,
      "ĠModify": 7338,
      "Ġreconfig": 7339,
      "Ġlimiting": 7340,
      "ĠDarkFace": 7341,
      "ĠMetrics": 7342,
      "Ġintroduced": 7343,
      "Ġreferences": 7344,
      "Ġsecure": 7345,
      "ytic": 7346,
      "Ġnarrow": 7347,
      "ĠSetting": 7348,
      "Ġincrease": 7349,
      "Ġrobustness": 7350,
      "Ġassociative": 7351,
      "Ġdevices": 7352,
      "Ġletting": 7353,
      "tuned": 7354,
      "Ġconcise": 7355,
      "Ġconcurrency": 7356,
      "ĠSequ": 7357,
      "Ġleverages": 7358,
      "Ġmetaphors": 7359,
      "Ġpolar": 7360,
      "Ġorchestrating": 7361,
      "relational": 7362,
      "Ġintentions": 7363,
      "Ġinfinitely": 7364,
      "Formal": 7365,
      "ĠCollaborative": 7366,
      "ĠAnalyze": 7367,
      "gorithmic": 7368,
      "Ġtuned": 7369,
      "Ġsustained": 7370,
      "Ġappears": 7371,
      "Ġprobability": 7372,
      "Ġimpossible": 7373,
      "Ġsafe": 7374,
      "Ġfragile": 7375,
      "ĠSheaves": 7376,
      "Ġextends": 7377,
      "Ġestablishing": 7378,
      "insic": 7379,
      "Ġterminal": 7380,
      "ĠConfigure": 7381,
      "Ġorigin": 7382,
      "Ġillust": 7383,
      "Ġobservation": 7384,
      "ĠAdjustments": 7385,
      "ĠComputation": 7386,
      "----------------------------------------------------------------": 7387,
      "Through": 7388,
      "Thank": 7389,
      "Ġdemonstrates": 7390,
      "Ġtypical": 7391,
      "ĠSymmetry": 7392,
      "ĠSymbolic": 7393,
      "Ġvalidates": 7394,
      "Ġresponds": 7395,
      "Blue": 7396,
      "iterations": 7397,
      "Ġretains": 7398,
      "Personalized": 7399,
      "ĠSchedule": 7400,
      "ĠHubris": 7401,
      "ĠTracks": 7402,
      "ĠTracking": 7403,
      "ĠSecret": 7404,
      "Ġinspired": 7405,
      "Ġparticipate": 7406,
      "Define": 7407,
      "Definition": 7408,
      "ĠEmergent": 7409,
      "Parallel": 7410,
      "ĠEdges": 7411,
      "Indeed": 7412,
      "Ġtreated": 7413,
      "persona": 7414,
      "Ġbenefits": 7415,
      "Ġstabilize": 7416,
      "ĠOrchestrator": 7417,
      "integrate": 7418,
      "Ġoscillations": 7419,
      "ĠTriality": 7420,
      "Ġformats": 7421,
      "Ġrepeat": 7422,
      "Ġredundant": 7423,
      "Ġcalculate": 7424,
      "uracy": 7425,
      "Ġcontinual": 7426,
      "Ġsentient": 7427,
      "Ġoverlap": 7428,
      "ĠThought": 7429,
      "because": 7430,
      "becoming": 7431,
      "Ġtouch": 7432,
      "Ġpurely": 7433,
      "cellent": 7434,
      "Ġrequests": 7435,
      "Ġblindly": 7436,
      "ĠRegularization": 7437,
      "Ġregularization": 7438,
      "optimize": 7439,
      "timestamp": 7440,
      "Ġredefine": 7441,
      "ĠMitochondrial": 7442,
      "Ġreplaced": 7443,
      "Metagraph": 7444,
      "Ġsilence": 7445,
      "Ġenforce": 7446,
      "Ġclusters": 7447,
      "ĠAdvantages": 7448,
      "Representations": 7449,
      "Ġadversarial": 7450,
      "Ġemptiness": 7451,
      "ĠInferno": 7452,
      "ĠIdentify": 7453,
      "Ġmanipulation": 7454,
      "electric": 7455,
      "Ġcredentials": 7456,
      "Ġoversight": 7457,
      "ĠTensor": 7458,
      "ĠPhysis": 7459,
      "Ġcontradi": 7460,
      "Ġindicating": 7461,
      "Ġcompatibility": 7462,
      "ĠPrioritize": 7463,
      "Agents": 7464,
      "sychological": 7465,
      "Ġsociet": 7466,
      "Ġinevit": 7467,
      "Ġhumor": 7468,
      "ĠPeople": 7469,
      "ĠProperty": 7470,
      "Ġincomplete": 7471,
      "Ġjudgment": 7472,
      "Ġmicrocosm": 7473,
      "Explorer": 7474,
      "Ġqml": 7475,
      "Ġphenomena": 7476,
      "Ġmajor": 7477,
      "Ġnecessity": 7478,
      "ĠRooted": 7479,
      "acuum": 7480,
      "ublic": 7481,
      "Ġremarkable": 7482,
      "Ġimmersive": 7483,
      "Ġwindow": 7484,
      "Ġrenewal": 7485,
      "Ġintrospection": 7486,
      "security": 7487,
      "Ġmechanics": 7488,
      "EVER": 7489,
      "Hello": 7490,
      "LaMA": 7491,
      "Oriented": 7492,
      "[];": 7493,
      "rystall": 7494,
      "sustaining": 7495,
      "Please": 7496,
      "Test": 7497,
      "bb": 7498,
      "breaking": 7499,
      "features": 7500,
      "firm": 7501,
      "iencies": 7502,
      "necessary": 7503,
      "pets": 7504,
      "wide": 7505,
      "Ġjson": 7506,
      "hent": 7507,
      "enetic": 7508,
      "ished": 7509,
      "Ġfig": 7510,
      "Ġment": 7511,
      "Ġrender": 7512,
      "ĠEqu": 7513,
      "see": 7514,
      "ĠAb": 7515,
      "Ġhim": 7516,
      "Ġholog": 7517,
      "urons": 7518,
      "Ġstra": 7519,
      "Ġstuck": 7520,
      "essential": 7521,
      "Ġitems": 7522,
      "ĠCurrent": 7523,
      "ervous": 7524,
      "ĠMakes": 7525,
      "ivating": 7526,
      "Ġsuitable": 7527,
      "jection": 7528,
      "ĠGenesis": 7529,
      "ippets": 7530,
      "Ġ\\)**": 7531,
      "ĠReview": 7532,
      "final": 7533,
      "connectivity": 7534,
      "Ġbackend": 7535,
      "Ġorganically": 7536,
      "Ġidentifying": 7537,
      "Ġengines": 7538,
      "Ġcharacteristics": 7539,
      "Projective": 7540,
      "Ġtriad": 7541,
      "Ġdefinition": 7542,
      "Ġinfluences": 7543,
      "ĠDisplay": 7544,
      "ĠHeart": 7545,
      "Ġpersistence": 7546,
      "iderations": 7547,
      "ĠSupport": 7548,
      "Ġretaining": 7549,
      "Ġcategor": 7550,
      "Ġelegance": 7551,
      "persistent": 7552,
      "brae": 7553,
      "Visualization": 7554,
      "Ġexploitation": 7555,
      "Ġmystery": 7556,
      "ĠOpportun": 7557,
      "Ġsnippets": 7558,
      "ĠBreakdown": 7559,
      "Ġbeneath": 7560,
      "Boundary": 7561,
      "Ġinefficiencies": 7562,
      "Ġcollectively": 7563,
      "Ġpretty": 7564,
      "Ġobscure": 7565,
      "!\"": 7566,
      "!\"*": 7567,
      "');": 7568,
      "):**": 7569,
      "68": 7570,
      ":\")": 7571,
      "Arena": 7572,
      "Benefits": 7573,
      "Cred": 7574,
      "Current": 7575,
      "Custom": 7576,
      "Documentation": 7577,
      "Elements": 7578,
      "Efficient": 7579,
      "EIS": 7580,
      "Free": 7581,
      "Fold": 7582,
      "Function": 7583,
      "Fibre": 7584,
      "IN": 7585,
      "ITICAL": 7586,
      "Kut": 7587,
      "Knowledge": 7588,
      "Lane": 7589,
      "Min": 7590,
      "Mapping": 7591,
      "Matic": 7592,
      "Master": 7593,
      "MODIFICATIONS": 7594,
      "Now": 7595,
      "Nomic": 7596,
      "Nadia": 7597,
      "OM": 7598,
      "On": 7599,
      "Over": 7600,
      "PettingZoo": 7601,
      "Sc": 7602,
      "Se": 7603,
      "Spaces": 7604,
      "TP": 7605,
      "Understood": 7606,
      "ZDo": 7607,
      "]:": 7608,
      "`)": 7609,
      "`:": 7610,
      "`)**:": 7611,
      "break": 7612,
      "babilistic": 7613,
      "city": 7614,
      "cases": 7615,
      "canceling": 7616,
      "dules": 7617,
      "declarative": 7618,
      "effect": 7619,
      "fn": 7620,
      "fessional": 7621,
      "friendly": 7622,
      "gu": 7623,
      "gagement": 7624,
      "harmon": 7625,
      "ipro": 7626,
      "iZDo": 7627,
      "ka": 7628,
      "ler": 7629,
      "link": 7630,
      "latform": 7631,
      "lambda": 7632,
      "main": 7633,
      "medi": 7634,
      "mitting": 7635,
      "net": 7636,
      "oon": 7637,
      "opt": 7638,
      "offic": 7639,
      "pip": 7640,
      "pite": 7641,
      "pdrop": 7642,
      "pansion": 7643,
      "rin": 7644,
      "sql": 7645,
      "tor": 7646,
      "til": 7647,
      "there": 7648,
      "truth": 7649,
      "telling": 7650,
      "tanh": 7651,
      "vas": 7652,
      "value": 7653,
      "vortex": 7654,
      "ww": 7655,
      "yrin": 7656,
      "}\"": 7657,
      "Ġ%": 7658,
      "infinite": 7659,
      "inside": 7660,
      "Ġties": 7661,
      "Ġtempor": 7662,
      "Ġtone": 7663,
      "Ġtaking": 7664,
      "Ġaion": 7665,
      "reve": 7666,
      "refin": 7667,
      "reference": 7668,
      "ont": 7669,
      "onor": 7670,
      "hest": 7671,
      "orth": 7672,
      "engine": 7673,
      "especially": 7674,
      "Ġsaw": 7675,
      "Ġsnake": 7676,
      "Ġsends": 7677,
      "itation": 7678,
      "itality": 7679,
      "itively": 7680,
      "itching": 7681,
      "allow": 7682,
      "alience": 7683,
      "Ġcorn": 7684,
      "Ġcues": 7685,
      "isibility": 7686,
      "Ġinward": 7687,
      "Ġinversion": 7688,
      "Ġoctads": 7689,
      "Ġoverview": 7690,
      "ctor": 7691,
      "Ġwield": 7692,
      "Ġwatch": 7693,
      "Ġfed": 7694,
      "Ġfut": 7695,
      "Ġfru": 7696,
      "Ġfake": 7697,
      "Ġfailed": 7698,
      "Ġfibration": 7699,
      "Ġfalse": 7700,
      "Ġfront": 7701,
      "let": 7702,
      "Ġpick": 7703,
      "Ġmar": 7704,
      "Ġmus": 7705,
      "Ġmole": 7706,
      "edHTML": 7707,
      "Ġreact": 7708,
      "Ġreport": 7709,
      "Ġreverse": 7710,
      "Ġreusable": 7711,
      "icher": 7712,
      "icult": 7713,
      "stac": 7714,
      "store": 7715,
      "streaming": 7716,
      "Ġbad": 7717,
      "Ġbases": 7718,
      "Ġbody": 7719,
      "Ġbonds": 7720,
      "Ġbirth": 7721,
      "Ġbouncing": 7722,
      "enty": 7723,
      "entropy": 7724,
      "Ġdreaming": 7725,
      "Ġdimin": 7726,
      "Ġdilation": 7727,
      "Ġdashboard": 7728,
      "oubling": 7729,
      "ighest": 7730,
      "Ġthous": 7731,
      "Ġlen": 7732,
      "Ġlib": 7733,
      "Ġlives": 7734,
      "Ġlik": 7735,
      "Ġlocations": 7736,
      "Ġlittle": 7737,
      "ĠTele": 7738,
      "ĠTruth": 7739,
      "rase": 7740,
      "rage": 7741,
      "rails": 7742,
      "ĠEffect": 7743,
      "separ": 7744,
      "imag": 7745,
      "impro": 7746,
      "improvement": 7747,
      "Ġhit": 7748,
      "Ġhighest": 7749,
      "Ġfork": 7750,
      "Ġforces": 7751,
      "Ġstack": 7752,
      "Ġstoch": 7753,
      "Ġconv": 7754,
      "asure": 7755,
      "irl": 7756,
      "iral": 7757,
      "iler": 7758,
      "ilib": 7759,
      "ilari": 7760,
      "amped": 7761,
      "ptions": 7762,
      "Ġproposed": 7763,
      "Ġorbifold": 7764,
      "ĠSpect": 7765,
      "ĠSince": 7766,
      "ĠSession": 7767,
      "ĠSalience": 7768,
      "ifest": 7769,
      "ifically": 7770,
      "Ġgl": 7771,
      "Ġgrap": 7772,
      "Ġglimpse": 7773,
      "eces": 7774,
      "eculi": 7775,
      "ĠCle": 7776,
      "ĠCode": 7777,
      "ĠCreat": 7778,
      "ĠCCG": 7779,
      "ried": 7780,
      "rium": 7781,
      "elow": 7782,
      "ellect": 7783,
      "ĠRhyth": 7784,
      "ĠROS": 7785,
      "ĠRES": 7786,
      "ĠRoles": 7787,
      "Ġexha": 7788,
      "Ġresemble": 7789,
      "Ġ\"#": 7790,
      "Ġ\"{{": 7791,
      "acilit": 7792,
      "Ġont": 7793,
      "Ġonline": 7794,
      "erver": 7795,
      "ĠDO": 7796,
      "ĠDist": 7797,
      "ades": 7798,
      "resolution": 7799,
      "Ġsystematically": 7800,
      "veraging": 7801,
      "osed": 7802,
      "ĠProm": 7803,
      "ĠPrompt": 7804,
      "ĠPhase": 7805,
      "ĠPref": 7806,
      "ĠPractical": 7807,
      "ĠPettingZoo": 7808,
      "ĠĠĠčĊ": 7809,
      "plified": 7810,
      "plification": 7811,
      "ploy": 7812,
      "ĠMake": 7813,
      "ĠMachina": 7814,
      "force": 7815,
      "ĠLS": 7816,
      "ĠLow": 7817,
      "ĠLibr": 7818,
      "ĠLimit": 7819,
      "exist": 7820,
      "executor": 7821,
      "execute": 7822,
      "perability": 7823,
      "Ġwhisp": 7824,
      "Ġcontractions": 7825,
      "Ġinterwoven": 7826,
      "ĠBates": 7827,
      "ĠBold": 7828,
      "ĠBoldFace": 7829,
      "ĠFits": 7830,
      "ĠFreedom": 7831,
      "ĠForest": 7832,
      "umility": 7833,
      "Ġleast": 7834,
      "Ġleave": 7835,
      "Ġvent": 7836,
      "Ġvol": 7837,
      "Ġvorticity": 7838,
      "andon": 7839,
      "actic": 7840,
      "actively": 7841,
      "Ġspin": 7842,
      "Ġspread": 7843,
      "uned": 7844,
      "usions": 7845,
      "estion": 7846,
      "thical": 7847,
      "threshold": 7848,
      "Ġdeath": 7849,
      "Ġevidence": 7850,
      "oph": 7851,
      "Ġalmost": 7852,
      "Ġuncheck": 7853,
      "ĠUI": 7854,
      "ĠUtil": 7855,
      "ĠHis": 7856,
      "ĠHead": 7857,
      "ĠHigher": 7858,
      "ĠHyperedges": 7859,
      "ĠHierarchical": 7860,
      "ĠNow": 7861,
      "ĠNested": 7862,
      "ĠNever": 7863,
      "Ġarch": 7864,
      "ĠOS": 7865,
      "ĠOnt": 7866,
      "ĠObserv": 7867,
      "raint": 7868,
      "ĠWOR": 7869,
      "ĠWater": 7870,
      "ellion": 7871,
      "Ġknew": 7872,
      "Ġacknow": 7873,
      "Ġselection": 7874,
      "Ġbypass": 7875,
      "Ġimb": 7876,
      "ponential": 7877,
      "Ġoutlined": 7878,
      "Ġricher": 7879,
      "concept": 7880,
      "conomic": 7881,
      "console": 7882,
      "Ġtransient": 7883,
      "ĠStores": 7884,
      "phys": 7885,
      "Ġupward": 7886,
      "ĠGlobal": 7887,
      "ĠGuid": 7888,
      "ĠGnosis": 7889,
      "Ġscore": 7890,
      "proj": 7891,
      "arden": 7892,
      "Ġshop": 7893,
      "ĠInference": 7894,
      "ĠInfinite": 7895,
      "ĠConvert": 7896,
      "ĠConceptual": 7897,
      "Ġ100": 7898,
      "Ġago": 7899,
      "Ġworkshop": 7900,
      "Ġactivation": 7901,
      "Ġdisgu": 7902,
      "Ġheld": 7903,
      "Ġheav": 7904,
      "Ġplaces": 7905,
      "Ġexplores": 7906,
      "Ġdesire": 7907,
      "intelligent": 7908,
      "Ġresonances": 7909,
      "ĠAtoms": 7910,
      "ĠExamples": 7911,
      "ergetic": 7912,
      "Ġ\\))": 7913,
      "Ġprepare": 7914,
      "Ġprojecting": 7915,
      "ĠTreeESN": 7916,
      "Ġoverload": 7917,
      "Ġoverhead": 7918,
      "Ġindirect": 7919,
      "Ġmetric": 7920,
      "Ġmetaphys": 7921,
      "oster": 7922,
      "ĠĠĠĠĠĠĠĠĠĠĠĠĠĠĠĠĠ": 7923,
      "Ġparams": 7924,
      "assist": 7925,
      "Ġquant": 7926,
      "Ġcyclical": 7927,
      "Ġcyborg": 7928,
      "Ġ`(": 7929,
      "ĠValid": 7930,
      "Ġtrap": 7931,
      "plicate": 7932,
      "Ġspecifics": 7933,
      "Ġseeks": 7934,
      "Strengths": 7935,
      "ups": 7936,
      "Ġkept": 7937,
      "arily": 7938,
      "depth": 7939,
      "ortical": 7940,
      "gressive": 7941,
      "irected": 7942,
      "Ġbrute": 7943,
      "spec": 7944,
      "positions": 7945,
      "ĠForms": 7946,
      "Ġhandled": 7947,
      "Ġadaptively": 7948,
      "ĠOrbifold": 7949,
      "eroperability": 7950,
      "ĠinstanceId": 7951,
      "Ġcollaborating": 7952,
      "Ġincoming": 7953,
      "Ġresponsible": 7954,
      "Ġsomehow": 7955,
      "ĠRepo": 7956,
      "ĠRepos": 7957,
      "ĠUnique": 7958,
      "Ġreadable": 7959,
      "Ġ30": 7960,
      "ermiss": 7961,
      "ĠThank": 7962,
      "Ġengaged": 7963,
      "aluate": 7964,
      "Ġmanaged": 7965,
      "Ġadjusted": 7966,
      "Ġdependency": 7967,
      "Ġimplementations": 7968,
      "Ġguy": 7969,
      "ĠResilience": 7970,
      "Ġprompting": 7971,
      "ĠRecovery": 7972,
      "Ġservice": 7973,
      "afka": 7974,
      "Ġoppress": 7975,
      "Expand": 7976,
      "Experiment": 7977,
      "ĠCoarse": 7978,
      "ĠCollapse": 7979,
      "Ġcodebase": 7980,
      "Ġadds": 7981,
      "Ġaddition": 7982,
      "complexity": 7983,
      "paring": 7984,
      "Ġviable": 7985,
      "Ġdefense": 7986,
      "iversity": 7987,
      "ĠAssoci": 7988,
      "mathbb": 7989,
      "Ġflux": 7990,
      "ĠWeights": 7991,
      "goes": 7992,
      "autom": 7993,
      "Ġsensor": 7994,
      "ĠArray": 7995,
      "Ġexperiential": 7996,
      "Ġexperienced": 7997,
      "Ġblend": 7998,
      "Ġexpands": 7999,
      "Ġplanets": 8000,
      "Ġfactorial": 8001,
      "ĠRefere": 8002,
      "Ġvariations": 8003,
      "cores": 8004,
      "Ġpredefined": 8005,
      "Ġschedule": 8006,
      "Ġscheduler": 8007,
      "Ġscheduled": 8008,
      "Ġschedules": 8009,
      "ðŁĴ": 8010,
      "Ġreduced": 8011,
      "ĠDeception": 8012,
      "cycles": 8013,
      "ĠManages": 8014,
      "ĠContinuous": 8015,
      "Ġfails": 8016,
      "Ġaccuracy": 8017,
      "Ġgenerally": 8018,
      "interconnected": 8019,
      "interaction": 8020,
      "ielding": 8021,
      "Ġimproved": 8022,
      "Ġimprovements": 8023,
      "Ġtrial": 8024,
      "Ġzones": 8025,
      "Ġedit": 8026,
      "Ġeduc": 8027,
      "Ġelim": 8028,
      "Ġequip": 8029,
      "Ġequilib": 8030,
      "Ġrevealed": 8031,
      "Ġchoosing": 8032,
      "memoryId": 8033,
      "Ġstreamline": 8034,
      "Ġprotect": 8035,
      "Ġproducts": 8036,
      "create": 8037,
      "crete": 8038,
      "Ġmoments": 8039,
      "Ġ50": 8040,
      "Ġachieving": 8041,
      "ĠShift": 8042,
      "ĠSharing": 8043,
      "Ġcallosum": 8044,
      "ĠApp": 8045,
      "ĠAppro": 8046,
      "ĠDarkness": 8047,
      "Ġsurface": 8048,
      "Ġeventual": 8049,
      "Adv": 8050,
      "Adjust": 8051,
      "ĠChronos": 8052,
      "ĠMetadata": 8053,
      "ĠAlgorithms": 8054,
      "ĠDetermines": 8055,
      "ĠLogical": 8056,
      "Ġspecialize": 8057,
      "Integrate": 8058,
      "Integrating": 8059,
      "Ġincreases": 8060,
      "Ġguided": 8061,
      "Ġinterval": 8062,
      "ĠExploration": 8063,
      "Outputs": 8064,
      "ĠOuter": 8065,
      "ĠOutputs": 8066,
      "Ġsubsets": 8067,
      "obius": 8068,
      "yzes": 8069,
      "ĠAllocation": 8070,
      "Ġassistants": 8071,
      "Ġretrie": 8072,
      "Ġrestri": 8073,
      "Ġrestrict": 8074,
      "bounded": 8075,
      "Scale": 8076,
      "Ġgrounded": 8077,
      "Ġgroundwork": 8078,
      "ĠQuantum": 8079,
      "Ġoutcome": 8080,
      "Ġethics": 8081,
      "Ġdelays": 8082,
      "Ġimmediately": 8083,
      "Ġprobabilities": 8084,
      "Identity": 8085,
      "Ġsafeguard": 8086,
      "ĠSolve": 8087,
      "ĠSolutions": 8088,
      "Ġinterpretability": 8089,
      "partitioning": 8090,
      "Ġinterests": 8091,
      "Ġgenes": 8092,
      "ĠCycle": 8093,
      "Ġspecify": 8094,
      "Ġspecifically": 8095,
      "ĠHighlights": 8096,
      "Ġ768": 8097,
      "ĠClass": 8098,
      "Ġperiodicity": 8099,
      "Ġrhythmic": 8100,
      "Ġfeeding": 8101,
      "Ġ1024": 8102,
      "ĠActs": 8103,
      "ĠProcesses": 8104,
      "Ġenumerable": 8105,
      "ĠEmbedded": 8106,
      "Ġlesson": 8107,
      "Those": 8108,
      "Ġdemonstrated": 8109,
      "Ġtyping": 8110,
      "ambient": 8111,
      "Ġcoordinating": 8112,
      "Ġorganizational": 8113,
      "Ġnuances": 8114,
      "Ġanalytical": 8115,
      "Ġportraits": 8116,
      "Transformation": 8117,
      "Ġdestro": 8118,
      "Ġdestruction": 8119,
      "ĠTasks": 8120,
      "ĠAgency": 8121,
      "ĠScheduling": 8122,
      "Ġsuccessful": 8123,
      "Ġabsolute": 8124,
      "Ġpredictive": 8125,
      "Ġforever": 8126,
      "Ġempowering": 8127,
      "Ġparticipation": 8128,
      "Ġparticipant": 8129,
      "emplates": 8130,
      "Ġstudents": 8131,
      "ĠMathematical": 8132,
      "Continuous": 8133,
      "Ġcorresponding": 8134,
      "Ġcarrying": 8135,
      "Indents": 8136,
      "ĠTechnical": 8137,
      "ĠAllows": 8138,
      "Ġmeetings": 8139,
      "Ġmotiv": 8140,
      "ĠBiological": 8141,
      "constraints": 8142,
      "fford": 8143,
      "alignment": 8144,
      "Ġstabilizing": 8145,
      "Ġaccountability": 8146,
      "Collaboration": 8147,
      "Ġrebellion": 8148,
      "generate": 8149,
      "Ġmissing": 8150,
      "owardice": 8151,
      "iliation": 8152,
      "indexed": 8153,
      "Ġdifficult": 8154,
      "ĠGrassmannians": 8155,
      "brace": 8156,
      "Ġintentionally": 8157,
      "(((())))": 8158,
      "Ġcausal": 8159,
      "Ġroutine": 8160,
      "ĠThinking": 8161,
      "Ġreconstruction": 8162,
      "Ġsentences": 8163,
      "ĠPersonalMemory": 8164,
      "Ġreliance": 8165,
      "Ġminimize": 8166,
      "Ġminimizing": 8167,
      "ĠHumans": 8168,
      "ĠOperate": 8169,
      "similarity": 8170,
      "Ġsatisfied": 8171,
      "Ġcorresponds": 8172,
      "visors": 8173,
      "DIR": 8174,
      "Ġsituation": 8175,
      "Ġsituational": 8176,
      "Ġredefines": 8177,
      "ĠALL": 8178,
      "Ġarchetypes": 8179,
      "ĠGoals": 8180,
      "ĠAssignment": 8181,
      "Ġpolicy": 8182,
      "embeddings": 8183,
      "ĠstripIndents": 8184,
      "ĠGradients": 8185,
      "Ġhypothesis": 8186,
      "Analog": 8187,
      "Ġtale": 8188,
      "Ġrecomb": 8189,
      "Ġrecommend": 8190,
      "Ġsnapsh": 8191
    },
    "merges": [
      [
        "i",
        "n"
      ],
      [
        "Ġ",
        "t"
      ],
      [
        "Ġ",
        "a"
      ],
      [
        "*",
        "*"
      ],
      [
        "r",
        "e"
      ],
      [
        "o",
        "n"
      ],
      [
        "Ġ",
        "Ġ"
      ],
      [
        "h",
        "e"
      ],
      [
        "a",
        "t"
      ],
      [
        "e",
        "r"
      ],
      [
        "o",
        "r"
      ],
      [
        "e",
        "n"
      ],
      [
        "e",
        "s"
      ],
      [
        "Ġ",
        "s"
      ],
      [
        "i",
        "t"
      ],
      [
        "in",
        "g"
      ],
      [
        "Ġ",
        "**"
      ],
      [
        "Ġt",
        "he"
      ],
      [
        "a",
        "l"
      ],
      [
        "Ġ",
        "c"
      ],
      [
        "i",
        "on"
      ],
      [
        "n",
        "d"
      ],
      [
        "i",
        "s"
      ],
      [
        "Ġ",
        "in"
      ],
      [
        "Ġ",
        "o"
      ],
      [
        "c",
        "t"
      ],
      [
        "Ġ",
        "w"
      ],
      [
        "Ġ",
        "f"
      ],
      [
        "l",
        "e"
      ],
      [
        "a",
        "n"
      ],
      [
        "Ġ",
        "p"
      ],
      [
        "Ġa",
        "nd"
      ],
      [
        "r",
        "o"
      ],
      [
        "Ġ",
        "m"
      ],
      [
        "e",
        "d"
      ],
      [
        "Ġ",
        "re"
      ],
      [
        "i",
        "c"
      ],
      [
        "a",
        "r"
      ],
      [
        "s",
        "t"
      ],
      [
        "Ġ",
        "b"
      ],
      [
        "en",
        "t"
      ],
      [
        "Ġ",
        "d"
      ],
      [
        "e",
        "m"
      ],
      [
        "c",
        "h"
      ],
      [
        "Ġo",
        "f"
      ],
      [
        "o",
        "u"
      ],
      [
        "Ġt",
        "o"
      ],
      [
        "c",
        "e"
      ],
      [
        "Ġ",
        "-"
      ],
      [
        "ĠĠ",
        "ĠĠ"
      ],
      [
        "v",
        "e"
      ],
      [
        "at",
        "ion"
      ],
      [
        "Ġ",
        "e"
      ],
      [
        "#",
        "#"
      ],
      [
        "u",
        "t"
      ],
      [
        "e",
        "t"
      ],
      [
        "**",
        ":"
      ],
      [
        "o",
        "m"
      ],
      [
        "-",
        "-"
      ],
      [
        "i",
        "g"
      ],
      [
        "Ġt",
        "h"
      ],
      [
        "Ġ",
        "l"
      ],
      [
        "â",
        "Ģ"
      ],
      [
        "Ġ",
        "T"
      ],
      [
        "r",
        "a"
      ],
      [
        "Ġ",
        "n"
      ],
      [
        "Ġ",
        "E"
      ],
      [
        "l",
        "l"
      ],
      [
        "Ġin",
        "t"
      ],
      [
        "s",
        "e"
      ],
      [
        "i",
        "m"
      ],
      [
        "i",
        "ve"
      ],
      [
        "o",
        "w"
      ],
      [
        "o",
        "l"
      ],
      [
        "Ġ",
        "A"
      ],
      [
        "Ġ",
        "h"
      ],
      [
        "l",
        "y"
      ],
      [
        "č",
        "Ċ"
      ],
      [
        "it",
        "h"
      ],
      [
        "Ġf",
        "or"
      ],
      [
        "u",
        "r"
      ],
      [
        "Ġs",
        "t"
      ],
      [
        "Ġc",
        "on"
      ],
      [
        "Ġ",
        "u"
      ],
      [
        "Ġw",
        "ith"
      ],
      [
        "o",
        "d"
      ],
      [
        "u",
        "re"
      ],
      [
        "ch",
        "o"
      ],
      [
        "a",
        "s"
      ],
      [
        "i",
        "r"
      ],
      [
        "i",
        "d"
      ],
      [
        "e",
        "ct"
      ],
      [
        "i",
        "l"
      ],
      [
        "o",
        "t"
      ],
      [
        "at",
        "e"
      ],
      [
        "it",
        "y"
      ],
      [
        "a",
        "m"
      ],
      [
        "Ġ",
        "is"
      ],
      [
        "p",
        "t"
      ],
      [
        "Ġp",
        "ro"
      ],
      [
        "o",
        "g"
      ],
      [
        "Ġ",
        "or"
      ],
      [
        "Ġ",
        "I"
      ],
      [
        "Ġa",
        "s"
      ],
      [
        "âĢ",
        "Ļ"
      ],
      [
        "a",
        "b"
      ],
      [
        "Ġ",
        "S"
      ],
      [
        "er",
        "s"
      ],
      [
        "i",
        "f"
      ],
      [
        "es",
        "s"
      ],
      [
        "Ġ",
        "g"
      ],
      [
        "e",
        "c"
      ],
      [
        "u",
        "l"
      ],
      [
        "y",
        "st"
      ],
      [
        "Ġ",
        "it"
      ],
      [
        "i",
        "z"
      ],
      [
        "yst",
        "em"
      ],
      [
        "Ġ",
        "y"
      ],
      [
        "Ġ",
        "C"
      ],
      [
        "Ġth",
        "at"
      ],
      [
        "g",
        "e"
      ],
      [
        "Ġ",
        "("
      ],
      [
        "r",
        "u"
      ],
      [
        "or",
        "y"
      ],
      [
        "r",
        "i"
      ],
      [
        "Ġy",
        "ou"
      ],
      [
        "e",
        "l"
      ],
      [
        "or",
        "k"
      ],
      [
        "e",
        "p"
      ],
      [
        "ct",
        "ion"
      ],
      [
        "a",
        "y"
      ],
      [
        "Ġ",
        "R"
      ],
      [
        "Ġ",
        "en"
      ],
      [
        "Ġe",
        "x"
      ],
      [
        "Ġre",
        "s"
      ],
      [
        "Ġ",
        "\""
      ],
      [
        "ĠE",
        "cho"
      ],
      [
        "a",
        "c"
      ],
      [
        "i",
        "es"
      ],
      [
        "k",
        "e"
      ],
      [
        "ig",
        "h"
      ],
      [
        "n",
        "t"
      ],
      [
        ".",
        "."
      ],
      [
        "Ġ",
        "on"
      ],
      [
        "er",
        "v"
      ],
      [
        "Ġ",
        "D"
      ],
      [
        "a",
        "d"
      ],
      [
        "re",
        "s"
      ],
      [
        "ĠT",
        "he"
      ],
      [
        "em",
        "ory"
      ],
      [
        "Ġs",
        "ystem"
      ],
      [
        "v",
        "er"
      ],
      [
        "p",
        "le"
      ],
      [
        "o",
        "s"
      ],
      [
        "##",
        "#"
      ],
      [
        "m",
        "ent"
      ],
      [
        "Ġ",
        "\\"
      ],
      [
        "is",
        "t"
      ],
      [
        "ic",
        "al"
      ],
      [
        "Ġ",
        "P"
      ],
      [
        "ĠĠ",
        "Ġ"
      ],
      [
        "Ġa",
        "n"
      ],
      [
        "p",
        "l"
      ],
      [
        "y",
        "n"
      ],
      [
        "a",
        "ce"
      ],
      [
        "Ġc",
        "om"
      ],
      [
        "Ġ",
        "M"
      ],
      [
        "q",
        "u"
      ],
      [
        "f",
        "or"
      ],
      [
        "Ġ",
        "L"
      ],
      [
        "--",
        "-"
      ],
      [
        "l",
        "d"
      ],
      [
        "a",
        "in"
      ],
      [
        "igh",
        "t"
      ],
      [
        "a",
        "p"
      ],
      [
        "r",
        "an"
      ],
      [
        "t",
        "er"
      ],
      [
        "**",
        ","
      ],
      [
        "Ġb",
        "e"
      ],
      [
        "en",
        "ce"
      ],
      [
        "w",
        "ork"
      ],
      [
        "an",
        "ce"
      ],
      [
        "he",
        "re"
      ],
      [
        "he",
        "r"
      ],
      [
        "ĠĠĠĠ",
        "ĠĠĠĠ"
      ],
      [
        "e",
        "x"
      ],
      [
        "ation",
        "s"
      ],
      [
        "p",
        "er"
      ],
      [
        "Ġw",
        "h"
      ],
      [
        "a",
        "ch"
      ],
      [
        "Ġcon",
        "t"
      ],
      [
        "o",
        "ir"
      ],
      [
        "erv",
        "oir"
      ],
      [
        "Ġint",
        "er"
      ],
      [
        "ru",
        "ct"
      ],
      [
        "yn",
        "am"
      ],
      [
        "i",
        "al"
      ],
      [
        "o",
        "c"
      ],
      [
        "h",
        "is"
      ],
      [
        "Ġw",
        "e"
      ],
      [
        "for",
        "m"
      ],
      [
        "Ġ",
        "B"
      ],
      [
        "Ġint",
        "o"
      ],
      [
        "re",
        "d"
      ],
      [
        "âĢ",
        "Ķ"
      ],
      [
        "at",
        "es"
      ],
      [
        "i",
        "v"
      ],
      [
        "Ġ",
        "F"
      ],
      [
        "u",
        "m"
      ],
      [
        "p",
        "ut"
      ],
      [
        "ou",
        "ld"
      ],
      [
        "ac",
        "k"
      ],
      [
        "an",
        "t"
      ],
      [
        "i",
        "ke"
      ],
      [
        "Ġ",
        "le"
      ],
      [
        "a",
        "g"
      ],
      [
        "Ġm",
        "emory"
      ],
      [
        "e",
        "ed"
      ],
      [
        "Ġa",
        "re"
      ],
      [
        "u",
        "st"
      ],
      [
        "Ġa",
        "d"
      ],
      [
        "ruct",
        "ure"
      ],
      [
        "Ġ",
        "v"
      ],
      [
        "a",
        "nd"
      ],
      [
        "ion",
        "s"
      ],
      [
        "ig",
        "n"
      ],
      [
        "a",
        "ct"
      ],
      [
        "Ġs",
        "p"
      ],
      [
        "a",
        "pt"
      ],
      [
        "ro",
        "m"
      ],
      [
        "Ġa",
        "ll"
      ],
      [
        "Ġc",
        "an"
      ],
      [
        "en",
        "s"
      ],
      [
        "u",
        "n"
      ],
      [
        "in",
        "e"
      ],
      [
        "Ġre",
        "c"
      ],
      [
        "u",
        "s"
      ],
      [
        "ex",
        "t"
      ],
      [
        "S",
        "N"
      ],
      [
        "es",
        "t"
      ],
      [
        "**",
        "."
      ],
      [
        "ynam",
        "ic"
      ],
      [
        "h",
        "a"
      ],
      [
        "e",
        "g"
      ],
      [
        "Ġm",
        "od"
      ],
      [
        "t",
        "h"
      ],
      [
        "o",
        "re"
      ],
      [
        "u",
        "al"
      ],
      [
        "Ġth",
        "is"
      ],
      [
        "en",
        "c"
      ],
      [
        "c",
        "ess"
      ],
      [
        "at",
        "ing"
      ],
      [
        "Ġl",
        "ike"
      ],
      [
        "i",
        "b"
      ],
      [
        "ran",
        "s"
      ],
      [
        "Ġd",
        "e"
      ],
      [
        "Ġe",
        "v"
      ],
      [
        "o",
        "p"
      ],
      [
        "ro",
        "u"
      ],
      [
        "Ġa",
        "l"
      ],
      [
        "Ġu",
        "n"
      ],
      [
        "Ġ",
        "U"
      ],
      [
        "p",
        "or"
      ],
      [
        "Ġ",
        "em"
      ],
      [
        "ur",
        "s"
      ],
      [
        "Ġc",
        "re"
      ],
      [
        "Ġ",
        "H"
      ],
      [
        "ter",
        "n"
      ],
      [
        "ab",
        "le"
      ],
      [
        "Ġst",
        "ructure"
      ],
      [
        "e",
        "re"
      ],
      [
        "Ġ",
        "N"
      ],
      [
        "n",
        "ow"
      ],
      [
        "Ġw",
        "here"
      ],
      [
        "ra",
        "m"
      ],
      [
        "g",
        "h"
      ],
      [
        "et",
        "work"
      ],
      [
        "s",
        "s"
      ],
      [
        "Ġc",
        "h"
      ],
      [
        "en",
        "d"
      ],
      [
        "Ġre",
        "f"
      ],
      [
        "Ġn",
        "ot"
      ],
      [
        "Ġa",
        "r"
      ],
      [
        "i",
        "ll"
      ],
      [
        "ĠT",
        "his"
      ],
      [
        "Ġ",
        "O"
      ],
      [
        "ou",
        "t"
      ],
      [
        "le",
        "d"
      ],
      [
        "ra",
        "in"
      ],
      [
        "Ġ",
        "W"
      ],
[...]
